{
  "version": "1.0",
  "truncation": null,
  "padding": null,
  "added_tokens": [
    {
      "id": 0,
      "content": "<endoftext>",
      "single_word": false,
      "lstrip": false,
      "rstrip": false,
      "normalized": false,
      "special": true
    },
    {
      "id": 1,
      "content": "<|im_end|>",
      "single_word": false,
      "lstrip": false,
      "rstrip": false,
      "normalized": false,
      "special": true
    },
    {
      "id": 2,
      "content": "<|im_start|>",
      "single_word": false,
      "lstrip": false,
      "rstrip": false,
      "normalized": false,
      "special": true
    },
    {
      "id": 3,
      "content": "<pad>",
      "single_word": false,
      "lstrip": false,
      "rstrip": false,
      "normalized": false,
      "special": true
    },
    {
      "id": 4,
      "content": "<mask>",
      "single_word": false,
      "lstrip": false,
      "rstrip": false,
      "normalized": false,
      "special": true
    },
    {
      "id": 5,
      "content": "<s>",
      "single_word": false,
      "lstrip": false,
      "rstrip": false,
      "normalized": false,
      "special": true
    },
    {
      "id": 6,
      "content": "</s>",
      "single_word": false,
      "lstrip": false,
      "rstrip": false,
      "normalized": false,
      "special": true
    },
    {
      "id": 7,
      "content": "<unk>",
      "single_word": false,
      "lstrip": false,
      "rstrip": false,
      "normalized": false,
      "special": true
    },
    {
      "id": 8,
      "content": "<UNK>",
      "single_word": false,
      "lstrip": false,
      "rstrip": false,
      "normalized": false,
      "special": true
    },
    {
      "id": 9,
      "content": "<EOS>",
      "single_word": false,
      "lstrip": false,
      "rstrip": false,
      "normalized": false,
      "special": true
    },
    {
      "id": 10,
      "content": "<zzy>",
      "single_word": false,
      "lstrip": false,
      "rstrip": false,
      "normalized": false,
      "special": true
    },
    {
      "id": 11,
      "content": "<|s1|>",
      "single_word": false,
      "lstrip": false,
      "rstrip": false,
      "normalized": false,
      "special": true
    },
    {
      "id": 12,
      "content": "<|s2|>",
      "single_word": false,
      "lstrip": false,
      "rstrip": false,
      "normalized": false,
      "special": true
    }
  ],
  "normalizer": null,
  "pre_tokenizer": {
    "type": "ByteLevel",
    "add_prefix_space": false,
    "trim_offsets": true,
    "use_regex": true
  },
  "post_processor": null,
  "decoder": {
    "type": "ByteLevel",
    "add_prefix_space": true,
    "trim_offsets": true,
    "use_regex": true
  },
  "model": {
    "type": "BPE",
    "dropout": null,
    "unk_token": null,
    "continuing_subword_prefix": null,
    "end_of_word_suffix": null,
    "fuse_unk": false,
    "byte_fallback": false,
    "ignore_merges": false,
    "vocab": {
      "<endoftext>": 0,
      "<|im_end|>": 1,
      "<|im_start|>": 2,
      "<pad>": 3,
      "<mask>": 4,
      "<s>": 5,
      "</s>": 6,
      "<unk>": 7,
      "<UNK>": 8,
      "<EOS>": 9,
      "<zzy>": 10,
      "<|s1|>": 11,
      "<|s2|>": 12,
      "!": 13,
      "\"": 14,
      "#": 15,
      "$": 16,
      "%": 17,
      "&": 18,
      "'": 19,
      "(": 20,
      ")": 21,
      "*": 22,
      "+": 23,
      ",": 24,
      "-": 25,
      ".": 26,
      "/": 27,
      "0": 28,
      "1": 29,
      "2": 30,
      "3": 31,
      "4": 32,
      "5": 33,
      "6": 34,
      "7": 35,
      "8": 36,
      "9": 37,
      ":": 38,
      ";": 39,
      "<": 40,
      "=": 41,
      ">": 42,
      "?": 43,
      "@": 44,
      "A": 45,
      "B": 46,
      "C": 47,
      "D": 48,
      "E": 49,
      "F": 50,
      "G": 51,
      "H": 52,
      "I": 53,
      "J": 54,
      "K": 55,
      "L": 56,
      "M": 57,
      "N": 58,
      "O": 59,
      "P": 60,
      "Q": 61,
      "R": 62,
      "S": 63,
      "T": 64,
      "U": 65,
      "V": 66,
      "W": 67,
      "X": 68,
      "Y": 69,
      "Z": 70,
      "[": 71,
      "\\": 72,
      "]": 73,
      "^": 74,
      "_": 75,
      "`": 76,
      "a": 77,
      "b": 78,
      "c": 79,
      "d": 80,
      "e": 81,
      "f": 82,
      "g": 83,
      "h": 84,
      "i": 85,
      "j": 86,
      "k": 87,
      "l": 88,
      "m": 89,
      "n": 90,
      "o": 91,
      "p": 92,
      "q": 93,
      "r": 94,
      "s": 95,
      "t": 96,
      "u": 97,
      "v": 98,
      "w": 99,
      "x": 100,
      "y": 101,
      "z": 102,
      "{": 103,
      "|": 104,
      "}": 105,
      "~": 106,
      "¡": 107,
      "¢": 108,
      "£": 109,
      "¤": 110,
      "¥": 111,
      "¦": 112,
      "§": 113,
      "¨": 114,
      "©": 115,
      "ª": 116,
      "«": 117,
      "¬": 118,
      "®": 119,
      "¯": 120,
      "°": 121,
      "±": 122,
      "²": 123,
      "³": 124,
      "´": 125,
      "µ": 126,
      "¶": 127,
      "·": 128,
      "¸": 129,
      "¹": 130,
      "º": 131,
      "»": 132,
      "¼": 133,
      "½": 134,
      "¾": 135,
      "¿": 136,
      "À": 137,
      "Á": 138,
      "Â": 139,
      "Ã": 140,
      "Ä": 141,
      "Å": 142,
      "Æ": 143,
      "Ç": 144,
      "È": 145,
      "É": 146,
      "Ê": 147,
      "Ë": 148,
      "Ì": 149,
      "Í": 150,
      "Î": 151,
      "Ï": 152,
      "Ð": 153,
      "Ñ": 154,
      "Ò": 155,
      "Ó": 156,
      "Ô": 157,
      "Õ": 158,
      "Ö": 159,
      "×": 160,
      "Ø": 161,
      "Ù": 162,
      "Ú": 163,
      "Û": 164,
      "Ü": 165,
      "Ý": 166,
      "Þ": 167,
      "ß": 168,
      "à": 169,
      "á": 170,
      "â": 171,
      "ã": 172,
      "ä": 173,
      "å": 174,
      "æ": 175,
      "ç": 176,
      "è": 177,
      "é": 178,
      "ê": 179,
      "ë": 180,
      "ì": 181,
      "í": 182,
      "î": 183,
      "ï": 184,
      "ð": 185,
      "ñ": 186,
      "ò": 187,
      "ó": 188,
      "ô": 189,
      "õ": 190,
      "ö": 191,
      "÷": 192,
      "ø": 193,
      "ù": 194,
      "ú": 195,
      "û": 196,
      "ü": 197,
      "ý": 198,
      "þ": 199,
      "ÿ": 200,
      "Ā": 201,
      "ā": 202,
      "Ă": 203,
      "ă": 204,
      "Ą": 205,
      "ą": 206,
      "Ć": 207,
      "ć": 208,
      "Ĉ": 209,
      "ĉ": 210,
      "Ċ": 211,
      "ċ": 212,
      "Č": 213,
      "č": 214,
      "Ď": 215,
      "ď": 216,
      "Đ": 217,
      "đ": 218,
      "Ē": 219,
      "ē": 220,
      "Ĕ": 221,
      "ĕ": 222,
      "Ė": 223,
      "ė": 224,
      "Ę": 225,
      "ę": 226,
      "Ě": 227,
      "ě": 228,
      "Ĝ": 229,
      "ĝ": 230,
      "Ğ": 231,
      "ğ": 232,
      "Ġ": 233,
      "ġ": 234,
      "Ģ": 235,
      "ģ": 236,
      "Ĥ": 237,
      "ĥ": 238,
      "Ħ": 239,
      "ħ": 240,
      "Ĩ": 241,
      "ĩ": 242,
      "Ī": 243,
      "ī": 244,
      "Ĭ": 245,
      "ĭ": 246,
      "Į": 247,
      "į": 248,
      "İ": 249,
      "ı": 250,
      "Ĳ": 251,
      "ĳ": 252,
      "Ĵ": 253,
      "ĵ": 254,
      "Ķ": 255,
      "ķ": 256,
      "ĸ": 257,
      "Ĺ": 258,
      "ĺ": 259,
      "Ļ": 260,
      "ļ": 261,
      "Ľ": 262,
      "ľ": 263,
      "Ŀ": 264,
      "ŀ": 265,
      "Ł": 266,
      "ł": 267,
      "Ń": 268,
      "ä¸": 269,
      "ï¼": 270,
      "çļ": 271,
      "çļĦ": 272,
      "ï¼Į": 273,
      "ãĢ": 274,
      "ãĢĤ": 275,
      "äº": 276,
      "ä»": 277,
      "åı": 278,
      "æľ": 279,
      "è¿": 280,
      "æĪ": 281,
      "åħ": 282,
      "ä½": 283,
      "æĺ": 284,
      "å¤": 285,
      "im": 286,
      "|>": 287,
      "<|": 288,
      "è¯": 289,
      "ä¸Ģ": 290,
      "æĸ": 291,
      "å®": 292,
      "çĶ": 293,
      "åĪ": 294,
      "åĴ": 295,
      "åľ": 296,
      "åĴĮ": 297,
      "åĲ": 298,
      "åĬ": 299,
      "ç»": 300,
      "ä¹": 301,
      "æĺ¯": 302,
      "å°": 303,
      "åŃ": 304,
      "ä¸ª": 305,
      "ä»¥": 306,
      "è®": 307,
      "ãĢģ": 308,
      "æĪĳ": 309,
      "åľ¨": 310,
      "äºº": 311,
      "ĥ½": 312,
      "ar": 313,
      "en": 314,
      "st": 315,
      "art": 316,
      "end": 317,
      "start": 318,
      "æľī": 319,
      "ï¼ļ": 320,
      "æĹ": 321,
      "äºĨ": 322,
      "åı¯": 323,
      "è¿Ļ": 324,
      "åĽ": 325,
      "æĿ": 326,
      "åº": 327,
      "éĩ": 328,
      "å¹": 329,
      "å¸": 330,
      "ä¸Ń": 331,
      "ä¼": 332,
      "éĢ": 333,
      "è¡": 334,
      "èĥ½": 335,
      "çļĦæ": 336,
      "åĩ": 337,
      "ãĢĤ<|": 338,
      "å·": 339,
      "æĸĩ": 340,
      "åĮ": 341,
      "è¦": 342,
      "è¦ģ": 343,
      "é¢": 344,
      "å¯": 345,
      "å¾": 346,
      "åĨ": 347,
      "ä¸º": 348,
      "è§": 349,
      "å¥": 350,
      "çī": 351,
      "ç§": 352,
      "ä»¬": 353,
      "éĹ": 354,
      "çİ": 355,
      "å¼": 356,
      "ä¸į": 357,
      "çĶ¨": 358,
      "æķ": 359,
      "èĢ": 360,
      "å½": 361,
      "æĢ": 362,
      "æŀ": 363,
      "çĶŁ": 364,
      "çŃ": 365,
      "æı": 366,
      "æī": 367,
      "æŃ": 368,
      "åı¯ä»¥": 369,
      "éĿ": 370,
      "åį": 371,
      "Ġ<|": 372,
      "ä¿": 373,
      "æĬ": 374,
      "æł": 375,
      "æ³": 376,
      "çĽ": 377,
      "âĢ": 378,
      "æĿ¥": 379,
      "èĩ": 380,
      "æĦ": 381,
      "åĵ": 382,
      "å¦": 383,
      "ä¸ĭ": 384,
      "çĲ": 385,
      "ä¸Ģä¸ª": 386,
      "æĪĲ": 387,
      "åİ": 388,
      "æĥ": 389,
      "æıĲ": 390,
      "æ°": 391,
      "åĪ°": 392,
      "ä»ĸ": 393,
      "æĽ": 394,
      "åŃ¦": 395,
      "æĻ": 396,
      "å¦Ĥ": 397,
      "è¡Į": 398,
      "åĩº": 399,
      "åĳ": 400,
      "å¿": 401,
      "æĹ¶": 402,
      "å¯¹": 403,
      "æĭ": 404,
      "ä½ł": 405,
      "åŃĲ": 406,
      "ä¾": 407,
      "äºİ": 408,
      "æİ": 409,
      "åľ°": 410,
      "é¢ĺ": 411,
      "ä¸Ĭ": 412,
      "ç«": 413,
      "æĶ": 414,
      "è´": 415,
      "å°ı": 416,
      "å¥½": 417,
      "ä¼ļ": 418,
      "çŃī": 419,
      "æĸ¹": 420,
      "æľ¬": 421,
      "èĩª": 422,
      "åĪĨ": 423,
      "æĽ´": 424,
      "äºĽ": 425,
      "å¤ļ": 426,
      "æµ": 427,
      "æ¯": 428,
      "èµ": 429,
      "å¤§": 430,
      "å±": 431,
      "æį": 432,
      "ï¼Ł": 433,
      "åĬ¨": 434,
      "ä½ľ": 435,
      "å·¥": 436,
      "çī©": 437,
      "çº": 438,
      "åħ³": 439,
      "è¾": 440,
      "å¹¶": 441,
      "åıĳ": 442,
      "ç®": 443,
      "æĮ": 444,
      "ç±": 445,
      "é£": 446,
      "éľ": 447,
      "æĪĳä»¬": 448,
      "éĿ¢": 449,
      "æ´": 450,
      "å®ļ": 451,
      "æľĢ": 452,
      "åħ¶": 453,
      "æŀľ": 454,
      "åŁ": 455,
      "æ¬": 456,
      "ç§į": 457,
      "çİ°": 458,
      "çļĦç": 459,
      "è¿Ľ": 460,
      "æ³ķ": 461,
      "éĻ": 462,
      "è¿ĩ": 463,
      "æĤ": 464,
      "éĹ®": 465,
      "åģ": 466,
      "æ¸": 467,
      "ä½ĵ": 468,
      "èī": 469,
      "å¤©": 470,
      "å®ĥ": 471,
      "æį®": 472,
      "ç»Ļ": 473,
      "åĬĽ": 474,
      "çĲĨ": 475,
      "æĺİ": 476,
      "éľĢ": 477,
      "æ²": 478,
      "å°Ĩ": 479,
      "åºĶ": 480,
      "åĬł": 481,
      "ç±»": 482,
      "æĸ°": 483,
      "éģ": 484,
      "çĤ": 485,
      "åĮĸ": 486,
      "æĢ§": 487,
      "çĦ": 488,
      "é«": 489,
      "åĲĮ": 490,
      "æĪĸ": 491,
      "ä½¿": 492,
      "åĽł": 493,
      "ä¿Ŀ": 494,
      "å¸¸": 495,
      "éĩį": 496,
      "çľ": 497,
      "é«ĺ": 498,
      "åı¥": 499,
      "è½": 500,
      "æĦŁ": 501,
      "å®¶": 502,
      "ä¹Ł": 503,
      "æľº": 504,
      "å½±": 505,
      "è¶": 506,
      "æ±": 507,
      "ä¸»": 508,
      "éĶ": 509,
      "éĺ": 510,
      "è¯Ń": 511,
      "çĦ¶": 512,
      "ç«ł": 513,
      "å¾Ĺ": 514,
      "âĢĿ": 515,
      "æķ°": 516,
      "æĸĩç«ł": 517,
      "éĢļ": 518,
      "åĵģ": 519,
      "âĢľ": 520,
      "ç³": 521,
      "éľĢè¦ģ": 522,
      "çĶµ": 523,
      "æĬĢ": 524,
      "æĻº": 525,
      "è°": 526,
      "è§£": 527,
      "æĸĩæľ¬": 528,
      "ä¹ĭ": 529,
      "ä¹Ī": 530,
      "æĥħ": 531,
      "æĤ¨": 532,
      "éĹ®é¢ĺ": 533,
      "åº¦": 534,
      "çŁ": 535,
      "èĢĮ": 536,
      "åī": 537,
      "æģ": 538,
      "è¡¨": 539,
      "ç»ı": 540,
      "æĻºèĥ½": 541,
      "è¯·": 542,
      "çĿ": 543,
      "å¾Ī": 544,
      "éĹ´": 545,
      "æŃ¤": 546,
      "èĬ": 547,
      "åĸ": 548,
      "ç¾": 549,
      "åħ¬": 550,
      "å¢": 551,
      "éĩı": 552,
      "åĽ½": 553,
      "ç©": 554,
      "çĤ¹": 555,
      "æľ¯": 556,
      "ç¤": 557,
      "èī²": 558,
      "èĤ": 559,
      "èĢħ": 560,
      "è¯į": 561,
      "å¹´": 562,
      "å®ŀ": 563,
      "æ°Ķ": 564,
      "å»": 565,
      "åĢ": 566,
      "åıĸ": 567,
      "ä¿¡": 568,
      "è¿Ļä¸ª": 569,
      "ä¹ł": 570,
      "åĲį": 571,
      "ç¨": 572,
      "å¿ĥ": 573,
      "ä½Ĩ": 574,
      "åĲĪ": 575,
      "æĦı": 576,
      "è¯¥": 577,
      "ä¸ļ": 578,
      "ä¾Ľ": 579,
      "çĸ": 580,
      "è®¡": 581,
      "åĲİ": 582,
      "ç¡": 583,
      "éĤ": 584,
      "äºĭ": 585,
      "æīĢ": 586,
      "ä»¥ä¸ĭ": 587,
      "ä»İ": 588,
      "è¿ĺ": 589,
      "å»º": 590,
      "æ®": 591,
      "çĽ¸": 592,
      "çĿĢ": 593,
      "çĲĥ": 594,
      "ä¸ĢäºĽ": 595,
      "éĥ½": 596,
      "åĮħ": 597,
      "æıĲä¾Ľ": 598,
      "æ´»": 599,
      "ä¸İ": 600,
      "ç¾İ": 601,
      "æł¹": 602,
      "è¿Ľè¡Į": 603,
      "æŁ": 604,
      "åı¥åŃĲ": 605,
      "ç½": 606,
      "å¼ı": 607,
      "é£Ł": 608,
      "åħ¥": 609,
      "å±ķ": 610,
      "åħ¨": 611,
      "éĩĮ": 612,
      "è¿°": 613,
      "äººå·¥": 614,
      "å¤ĸ": 615,
      "çİ¯": 616,
      "é¡": 617,
      "çķ": 618,
      "çī¹": 619,
      "ä½¿çĶ¨": 620,
      "æĥ³": 621,
      "ç´": 622,
      "éĿŀ": 623,
      "èĲ": 624,
      "é¦": 625,
      "äººå·¥æĻºèĥ½": 626,
      "ç¯": 627,
      "åĨħ": 628,
      "æŃ£": 629,
      "æ¡": 630,
      "è¢": 631,
      "éļ": 632,
      "å½ĵ": 633,
      "å¼Ģ": 634,
      "åİ»": 635,
      "éķ": 636,
      "æģ¯": 637,
      "æł¹æį®": 638,
      "æ°´": 639,
      "æ·": 640,
      "æ¯Ķ": 641,
      "åıĺ": 642,
      "åĨĻ": 643,
      "æ®µ": 644,
      "æĺ¯ä¸Ģ": 645,
      "åŀ": 646,
      "éĥ": 647,
      "ç³»": 648,
      "è·": 649,
      "åĬ©": 650,
      "èģ": 651,
      "è¯´": 652,
      "åŃ¦ä¹ł": 653,
      "ç¨ĭ": 654,
      "åĪ¶": 655,
      "åħ·": 656,
      "ç¡®": 657,
      "å¸Ĥ": 658,
      "è®©": 659,
      "ä»Ģ": 660,
      "éĽ": 661,
      "æĮģ": 662,
      "éģĵ": 663,
      "åĿ": 664,
      "çľĭ": 665,
      "ç¯ĩ": 666,
      "ç¼": 667,
      "äº§": 668,
      "èµ·": 669,
      "çĥ": 670,
      "ç»ĵ": 671,
      "åķ": 672,
      "ä»Ģä¹Ī": 673,
      "æĬĢæľ¯": 674,
      "å¸®": 675,
      "èº": 676,
      "åıĬ": 677,
      "è¯Ŀ": 678,
      "éĥ¨": 679,
      "çĽ®": 680,
      "éĤ£": 681,
      "èĭ": 682,
      "ç¬": 683,
      "ä½ķ": 684,
      "éķ¿": 685,
      "éĿŀå¸¸": 686,
      "èį": 687,
      "åĬ¡": 688,
      "ç®Ĺ": 689,
      "æ¯ı": 690,
      "èº«": 691,
      "çĭ": 692,
      "è¢«": 693,
      "åģ¥": 694,
      "ç§ĳ": 695,
      "æĹ¥": 696,
      "å°ĳ": 697,
      "å·±": 698,
      "åīį": 699,
      "åĻ": 700,
      "æĭ¬": 701,
      "éħ": 702,
      "éĢĤ": 703,
      "åĸľ": 704,
      "èĩªå·±": 705,
      "åľº": 706,
      "å®¹": 707,
      "åıĹ": 708,
      "åı¯èĥ½": 709,
      "æĹł": 710,
      "åĽŀ": 711,
      "æ¬¢": 712,
      "ä¿¡æģ¯": 713,
      "éĢī": 714,
      "ä»ĸä»¬": 715,
      "åĻ¨": 716,
      "åĮ»": 717,
      "äº¤": 718,
      "å¥½çļĦ": 719,
      "ä»£": 720,
      "åŀĭ": 721,
      "é¢Ĩ": 722,
      "åĪ«": 723,
      "èĻ": 724,
      "çł": 725,
      "å¤Ħ": 726,
      "çĶµå½±": 727,
      "çŃĶ": 728,
      "è¨": 729,
      "é¥": 730,
      "çĪ": 731,
      "éª": 732,
      "æ¶": 733,
      "ä½į": 734,
      "åĪ©": 735,
      "è´¨": 736,
      "æ»": 737,
      "è®®": 738,
      "é£İ": 739,
      "å¢ĥ": 740,
      "å¹³": 741,
      "ä¸¤": 742,
      "æ¡Ī": 743,
      "æīĭ": 744,
      "çĹ": 745,
      "å§": 746,
      "ä¾ĭ": 747,
      "è¿ĻäºĽ": 748,
      "éĩįè¦ģ": 749,
      "éĢļè¿ĩ": 750,
      "å¦Ĥæŀľ": 751,
      "ä¸ŃçļĦ": 752,
      "éŁ": 753,
      "ä»»": 754,
      "åĵį": 755,
      "ä»¶": 756,
      "çĶŁæĪĲ": 757,
      "åĮħæĭ¬": 758,
      "è®º": 759,
      "åŃĹ": 760,
      "åı¸": 761,
      "åŁŁ": 762,
      "åıĳå±ķ": 763,
      "è¨Ģ": 764,
      "çĻ": 765,
      "åºĶçĶ¨": 766,
      "å°ıæĺİ": 767,
      "å°±": 768,
      "æłĩ": 769,
      "ç®Ģ": 770,
      "æ±Ĥ": 771,
      "æ²¡": 772,
      "åĪĽ": 773,
      "åįķ": 774,
      "åĨ³": 775,
      "è§Ĥ": 776,
      "æĶ¹": 777,
      "æĶ¾": 778,
      "æİ¨": 779,
      "æ¸¸": 780,
      "èĪ": 781,
      "çģ": 782,
      "åıª": 783,
      "æľª": 784,
      "è®¾": 785,
      "å½±åĵį": 786,
      "çŁ¥": 787,
      "åº·": 788,
      "ç»Ł": 789,
      "æĹ¶éĹ´": 790,
      "ä¸ī": 791,
      "æĢ»": 792,
      "å¸®åĬ©": 793,
      "ç¥": 794,
      "æľŁ": 795,
      "é»": 796,
      "å£": 797,
      "åĸľæ¬¢": 798,
      "æº": 799,
      "ä¹Ĳ": 800,
      "èĬĤ": 801,
      "åħ¬åı¸": 802,
      "æıı": 803,
      "æķĪ": 804,
      "è¯Ĩ": 805,
      "åģ¥åº·": 806,
      "æµ·": 807,
      "æ¨": 808,
      "å¼º": 809,
      "å¤Ł": 810,
      "èĥ": 811,
      "ç»Ļå®ļ": 812,
      "ç¤¾": 813,
      "æĸŃ": 814,
      "åĩı": 815,
      "äººç±»": 816,
      "æĳ": 817,
      "æ³¨": 818,
      "æŀģ": 819,
      "å®ī": 820,
      "é¢ĨåŁŁ": 821,
      "çĶŁæ´»": 822,
      "æ¼": 823,
      "æľį": 824,
      "è¾¾": 825,
      "æ·±": 826,
      "çĶ±": 827,
      "æł·": 828,
      "çĸĹ": 829,
      "åĽłæŃ¤": 830,
      "çİ¯å¢ĥ": 831,
      "ä¸įåĲĮ": 832,
      "æŃ¥": 833,
      "å·¥ä½ľ": 834,
      "æĺŁ": 835,
      "è±": 836,
      "èĦ": 837,
      "é©": 838,
      "éŁ³": 839,
      "å¤ª": 840,
      "æķ°æį®": 841,
      "æµģ": 842,
      "å½¢": 843,
      "åİŁ": 844,
      "åģļ": 845,
      "ä¸ĸ": 846,
      "å·²": 847,
      "èİ": 848,
      "æıĲåıĸ": 849,
      "æĻ¯": 850,
      "è½¦": 851,
      "åıĭ": 852,
      "æııè¿°": 853,
      "æ²¡æľī": 854,
      "å¸¦": 855,
      "æĪ·": 856,
      "åĽłä¸º": 857,
      "å¯¼": 858,
      "è¿Ĳ": 859,
      "æ¬¡": 860,
      "åĳĺ": 861,
      "çĮ": 862,
      "ç²": 863,
      "éĴ": 864,
      "èı": 865,
      "å»ºè®®": 866,
      "æ¨¡": 867,
      "æĸĻ": 868,
      "éĶ®": 869,
      "æıĲé«ĺ": 870,
      "è¯ķ": 871,
      "èĩªçĦ¶": 872,
      "å®ĥä»¬": 873,
      "æī¾": 874,
      "ãĢĭ": 875,
      "åŁº": 876,
      "ãĢĬ": 877,
      "å¦Ĥä½ķ": 878,
      "è®¤": 879,
      "åİĨ": 880,
      "ä¹ī": 881,
      "åŁİ": 882,
      "æĽ´åĬł": 883,
      "å¥¹": 884,
      "ä¼ł": 885,
      "æºĲ": 886,
      "ä¸»è¦ģ": 887,
      "åĲĦ": 888,
      "åħ³éĶ®": 889,
      "ç¤º": 890,
      "æĬ¤": 891,
      "æĭ©": 892,
      "æĮĩ": 893,
      "åºĶè¯¥": 894,
      "åĲĳ": 895,
      "éĢł": 896,
      "æł¼": 897,
      "ç»Ħ": 898,
      "éĢīæĭ©": 899,
      "çķĮ": 900,
      "åħī": 901,
      "çļĦæķ": 902,
      "æĸ¹å¼ı": 903,
      "æĹħ": 904,
      "åĲĮæĹ¶": 905,
      "è¿ĳ": 906,
      "èĥ½å¤Ł": 907,
      "ç¯ĩæĸĩç«ł": 908,
      "èĲ½": 909,
      "ç©¶": 910,
      "è£": 911,
      "åĨħå®¹": 912,
      "è°ĥ": 913,
      "äººä»¬": 914,
      "åı£": 915,
      "çĪ±": 916,
      "ï¼Ľ": 917,
      "è¯Ńè¨Ģ": 918,
      "è§Ĩ": 919,
      "åĳ³": 920,
      "ç©º": 921,
      "çº¢": 922,
      "åĮº": 923,
      "èĢĥ": 924,
      "ä»·": 925,
      "åĲĹ": 926,
      "åħ³äºİ": 927,
      "çĬ": 928,
      "ç½ĳ": 929,
      "èĬ±": 930,
      "åĳĬ": 931,
      "æĺ¯ä¸Ģä¸ª": 932,
      "ä¾ĭå¦Ĥ": 933,
      "æľªæĿ¥": 934,
      "çĹħ": 935,
      "é¤": 936,
      "è®¡ç®Ĺ": 937,
      "å¿«": 938,
      "å¹¿": 939,
      "æľºåĻ¨": 940,
      "ç®¡": 941,
      "æĸ¹æ³ķ": 942,
      "æĸ¹éĿ¢": 943,
      "é¢Ħ": 944,
      "å¢ŀ": 945,
      "ï¼ī": 946,
      "åķĨ": 947,
      "éªĮ": 948,
      "é¤Ĳ": 949,
      "æĢĿ": 950,
      "Ķç©¶": 951,
      "ç¦": 952,
      "ä¹¦": 953,
      "ä¸Ķ": 954,
      "åĩĨ": 955,
      "å®Į": 956,
      "åĩł": 957,
      "é¦ĸ": 958,
      "éĵ": 959,
      "å®¢": 960,
      "éĶĻ": 961,
      "åĪ°äºĨ": 962,
      "é¡¹": 963,
      "åħ¶ä»ĸ": 964,
      "ä¼ĺ": 965,
      "è¶Ĭ": 966,
      "ä»¥åıĬ": 967,
      "ä¸»é¢ĺ": 968,
      "é¸": 969,
      "å¼ķ": 970,
      "éĩĳ": 971,
      "è®¸": 972,
      "è¯Ħ": 973,
      "æļ": 974,
      "æ¸ħ": 975,
      "åħĪ": 976,
      "ç´ł": 977,
      "åĬŁ": 978,
      "æ£": 979,
      "å¤ĩ": 980,
      "è½»": 981,
      "æİ¥": 982,
      "è§ī": 983,
      "åĪĹ": 984,
      "ï¼Ī": 985,
      "è¯»": 986,
      "èµĦ": 987,
      "æĪĺ": 988,
      "èĮ": 989,
      "åĪĨç±»": 990,
      "å§ĭ": 991,
      "ä»Ĭ": 992,
      "ä¸ªäºº": 993,
      "éĺ³": 994,
      "çŁŃ": 995,
      "èĩ´": 996,
      "åŃĺ": 997,
      "åĵª": 998,
      "æµĭ": 999,
      "æķĻ": 1000,
      "æĢģ": 1001,
      "æ¸©": 1002,
      "ç»Ń": 1003,
      "åĢĻ": 1004,
      "ï¼ģ": 1005,
      "æľĭ": 1006,
      "æŀĲ": 1007,
      "ç¼ĸ": 1008,
      "ä¸ĸçķĮ": 1009,
      "åħ±": 1010,
      "ä½Ĩæĺ¯": 1011,
      "åĲ«": 1012,
      "æľĪ": 1013,
      "èıľ": 1014,
      "æľĭåıĭ": 1015,
      "çº¦": 1016,
      "åħĭ": 1017,
      "ç§¯": 1018,
      "ç«ĭ": 1019,
      "çİĩ": 1020,
      "åĽŀçŃĶ": 1021,
      "æĸĩåĮĸ": 1022,
      "åĪĨæŀĲ": 1023,
      "å¤ĦçĲĨ": 1024,
      "åı²": 1025,
      "ç»Ĩ": 1026,
      "çļĦæĥ": 1027,
      "ä¸Ģä¸ĭ": 1028,
      "æĶ¯": 1029,
      "åĩıå°ĳ": 1030,
      "åŁİå¸Ĥ": 1031,
      "è±¡": 1032,
      "å±±": 1033,
      "ä¹ĭä¸Ģ": 1034,
      "è¶³": 1035,
      "è¿Ļç¯ĩæĸĩç«ł": 1036,
      "ä¸ŃåĽ½": 1037,
      "æķ´": 1038,
      "åĲ¦": 1039,
      "å¤į": 1040,
      "ç¬¬": 1041,
      "åĪĻ": 1042,
      "æ»¡": 1043,
      "åĨµ": 1044,
      "ä¿ĿæĬ¤": 1045,
      "çłĶç©¶": 1046,
      "ĺè¦ģ": 1047,
      "èĳ": 1048,
      "åħĥ": 1049,
      "è§Ĵ": 1050,
      "ç¥ŀ": 1051,
      "é¥®": 1052,
      "20": 1053,
      "å·²ç»ı": 1054,
      "åĥ": 1055,
      "æľĽ": 1056,
      "è®¸å¤ļ": 1057,
      "æİ¢": 1058,
      "äºĨä¸Ģ": 1059,
      "èĩªå·±çļĦ": 1060,
      "ä¸¤ä¸ª": 1061,
      "ç³ĸ": 1062,
      "éĩĩ": 1063,
      "åıį": 1064,
      "ç¿": 1065,
      "è°¢": 1066,
      "èĢģ": 1067,
      "äº§åĵģ": 1068,
      "çº¿": 1069,
      "åĪĴ": 1070,
      "è¾ĵ": 1071,
      "çľŁ": 1072,
      "åĮ»çĸĹ": 1073,
      "æŃ¤å¤ĸ": 1074,
      "çĭĹ": 1075,
      "ç³»ç»Ł": 1076,
      "æĽ´å¤ļ": 1077,
      "è§Ħ": 1078,
      "å°½": 1079,
      "éĢŁ": 1080,
      "åĶ": 1081,
      "çħ": 1082,
      "è¶£": 1083,
      "è·¯": 1084,
      "éĻ©": 1085,
      "å¥³": 1086,
      "åıĤ": 1087,
      "çļĦäºº": 1088,
      "èģĶ": 1089,
      "åĲĥ": 1090,
      "ä¿ĿæĮģ": 1091,
      "ä»½": 1092,
      "æĸ¯": 1093,
      "è¥": 1094,
      "åħ¨çĲĥ": 1095,
      "æĺ¯ä¸Ģç§į": 1096,
      "æĬ¥": 1097,
      "æĺĵ": 1098,
      "çĽ´": 1099,
      "åĬ¨çī©": 1100,
      "Â·": 1101,
      "æľįåĬ¡": 1102,
      "çĻ½": 1103,
      "å¤´": 1104,
      "åĢ¼": 1105,
      "è¥¿": 1106,
      "æĸ½": 1107,
      "è§£åĨ³": 1108,
      "æİĴ": 1109,
      "æĪĲä¸º": 1110,
      "ħäºĭ": 1111,
      "åĨį": 1112,
      "åĥı": 1113,
      "çĥŃ": 1114,
      "çİ¯ä¿Ŀ": 1115,
      "ä»ĭ": 1116,
      "åĽ¾": 1117,
      "æ´»åĬ¨": 1118,
      "å²": 1119,
      "éļ¾": 1120,
      "ä¹°": 1121,
      "ä¾¿": 1122,
      "åĳ¨": 1123,
      "çļĦä¸Ģ": 1124,
      "æŁ¥": 1125,
      "æĪĸèĢħ": 1126,
      "èİ·": 1127,
      "è¾ĥ": 1128,
      "èĻĳ": 1129,
      "æŀĦ": 1130,
      "æĿ¡": 1131,
      "ç¤¾ä¼ļ": 1132,
      "å®īåħ¨": 1133,
      "10": 1134,
      "è¿ĲåĬ¨": 1135,
      "è§ģ": 1136,
      "çīĩ": 1137,
      "åĲ¬": 1138,
      "èº«ä½ĵ": 1139,
      "ç»ĻæĪĳ": 1140,
      "è¯Ĺ": 1141,
      "åıĳçİ°": 1142,
      "èĩ³": 1143,
      "æĲ": 1144,
      "çļĦæĥħ": 1145,
      "æ¼Ķ": 1146,
      "éħį": 1147,
      "éļı": 1148,
      "åıĺåĮĸ": 1149,
      "çİ°åľ¨": 1150,
      "ãĢĤâĢĿ": 1151,
      "æīĵ": 1152,
      "ç§ĳæĬĢ": 1153,
      "åħ¶ä¸Ń": 1154,
      "ç»ĥ": 1155,
      "åºı": 1156,
      "æĶ¶": 1157,
      "çĬ¶": 1158,
      "è®¤ä¸º": 1159,
      "å¼ł": 1160,
      "èĤ²": 1161,
      "å¤©æ°Ķ": 1162,
      "ä¸½": 1163,
      "ç´¢": 1164,
      "éĤ£ä¹Ī": 1165,
      "æĪĳä»¬çļĦ": 1166,
      "åĳ½": 1167,
      "ä¹ĭéĹ´": 1168,
      "äº«": 1169,
      "æĬĬ": 1170,
      "ç²¾": 1171,
      "è®°": 1172,
      "æ¶Ī": 1173,
      "¹æŀľ": 1174,
      "æħ": 1175,
      "åħħ": 1176,
      "èĥ½åĬĽ": 1177,
      "çĽ¸åħ³": 1178,
      "èĭ¹æŀľ": 1179,
      "äºĮ": 1180,
      "ä½łçļĦ": 1181,
      "åİĨåı²": 1182,
      "æĶ¿": 1183,
      "åĲ¸": 1184,
      "å¾Īå¤ļ": 1185,
      "åı¤": 1186,
      "çŃĸ": 1187,
      "å¡": 1188,
      "å¸¦æĿ¥": 1189,
      "çı": 1190,
      "æ¤": 1191,
      "æĳĺè¦ģ": 1192,
      "åĽŃ": 1193,
      "åħ·æľī": 1194,
      "è´Ń": 1195,
      "ç¢": 1196,
      "åħ´": 1197,
      "éĺŁ": 1198,
      "å¸Ī": 1199,
      "ä½İ": 1200,
      "çĮ«": 1201,
      "å¤±": 1202,
      "éĹ¨": 1203,
      "æ¬¾": 1204,
      "ç»´": 1205,
      "æ²»": 1206,
      "åį³": 1207,
      "ç»Ļå®ļçļĦ": 1208,
      "éĹ»": 1209,
      "ç§ĳåŃ¦": 1210,
      "ç§°": 1211,
      "å¸ĥ": 1212,
      "æ¢": 1213,
      "çĭ¬": 1214,
      "åħį": 1215,
      "æŃĮ": 1216,
      "è¯ī": 1217,
      "éĩĬ": 1218,
      "äºĴ": 1219,
      "èįĲ": 1220,
      "åĭ": 1221,
      "éŁ³ä¹Ĳ": 1222,
      "ç»Ļåĩº": 1223,
      "å°Ŀ": 1224,
      "çļĦæĦ": 1225,
      "¦Ĥ": 1226,
      "çŃĶæ¡Ī": 1227,
      "æīį": 1228,
      "æĿĲ": 1229,
      "è¿Ļç§į": 1230,
      "è®¾è®¡": 1231,
      "ç§¯æŀģ": 1232,
      "ç»į": 1233,
      "å¼Ģå§ĭ": 1234,
      "ä»»åĬ¡": 1235,
      "èĲ¥": 1236,
      "æĿ¾": 1237,
      "äºĨè§£": 1238,
      "éĽĨ": 1239,
      "è¡¨è¾¾": 1240,
      "ä»ĭç»į": 1241,
      "ä¸ŃæıĲåıĸ": 1242,
      "åı¥è¯Ŀ": 1243,
      "çļĦå½±åĵį": 1244,
      "å¯¼èĩ´": 1245,
      "å¯Į": 1246,
      "è¯¯": 1247,
      "åŃ£": 1248,
      "å¿ħ": 1249,
      "å¨": 1250,
      "èĽ": 1251,
      "å¯¹äºİ": 1252,
      "æ¨¡åŀĭ": 1253,
      "åħ·ä½ĵ": 1254,
      "è®¡ç®Ĺæľº": 1255,
      "èĭ±": 1256,
      "çĶ·": 1257,
      "æĥħæĦŁ": 1258,
      "æľºåĻ¨åŃ¦ä¹ł": 1259,
      "çĲĨè§£": 1260,
      "æİ¨èįĲ": 1261,
      "çļĦæĬ": 1262,
      "è½¬": 1263,
      "å®ŀçİ°": 1264,
      "æľĢè¿ĳ": 1265,
      "æĸ°çļĦ": 1266,
      "æĺ¯åĲ¦": 1267,
      "éĢļå¸¸": 1268,
      "åı·": 1269,
      "åįĩ": 1270,
      "åİĭ": 1271,
      "è®¨": 1272,
      "é¦Ļ": 1273,
      "éĻ¤": 1274,
      "èµĽ": 1275,
      "è®²": 1276,
      "åĬ¿": 1277,
      "ä¸ĵ": 1278,
      "ä»Ĭå¤©": 1279,
      "æĽ´å¥½": 1280,
      "èĤī": 1281,
      "é²": 1282,
      "åĮĹ": 1283,
      "ä¸įæĸŃ": 1284,
      "åĲĦç§į": 1285,
      "ä¿®": 1286,
      "æĿİ": 1287,
      "è´¹": 1288,
      "é»ĳ": 1289,
      "éĶĢ": 1290,
      "æ°ĳ": 1291,
      "åľ°çĲĥ": 1292,
      "è®¡åĪĴ": 1293,
      "å¸Ĥåľº": 1294,
      "è£ħ": 1295,
      "åįİ": 1296,
      "æĪı": 1297,
      "åįģ": 1298,
      "åħ³éĶ®è¯į": 1299,
      "åĳĬè¯ī": 1300,
      "è¯ģ": 1301,
      "æŁĵ": 1302,
      "åħ»": 1303,
      "çļĦéĹ®é¢ĺ": 1304,
      "æīĢæľī": 1305,
      "ä¸Ģæ®µ": 1306,
      "é©¬": 1307,
      "èħ": 1308,
      "åĸĦ": 1309,
      "åĽ´": 1310,
      "æīĢä»¥": 1311,
      "çĶ¨æĪ·": 1312,
      "æ³¨æĦı": 1313,
      "èīº": 1314,
      "æĻļ": 1315,
      "ç»Ī": 1316,
      "æĪĳçļĦ": 1317,
      "åįķè¯į": 1318,
      "å¯»": 1319,
      "è¯ĨåĪ«": 1320,
      "éĢĤåĲĪ": 1321,
      "å¤ı": 1322,
      "ä¸Ģèµ·": 1323,
      "æİ§": 1324,
      "ç¦»": 1325,
      "å¸Į": 1326,
      "æŃ£åľ¨": 1327,
      "çª": 1328,
      "AI": 1329,
      "æĪĳä»¬åı¯ä»¥": 1330,
      "èĳĹ": 1331,
      "å¾ĭ": 1332,
      "éĻħ": 1333,
      "éĺ²": 1334,
      "æĸ°éĹ»": 1335,
      "æ¯Ķå¦Ĥ": 1336,
      "è¶ħ": 1337,
      "ä»ĸçļĦ": 1338,
      "åĽĽ": 1339,
      "è¿ľ": 1340,
      "å¤ªéĺ³": 1341,
      "åŃ©": 1342,
      "è¦ģæ±Ĥ": 1343,
      "çŁ¥éģĵ": 1344,
      "çļĦæĺ¯": 1345,
      "æĹłæ³ķ": 1346,
      "å°Ķ": 1347,
      "å¹¶ä¸Ķ": 1348,
      "ä¸Ģç§į": 1349,
      "å·§": 1350,
      "æĦŁåĪ°": 1351,
      "æŀĹ": 1352,
      "æ³Ľ": 1353,
      "å£°": 1354,
      "æĴ": 1355,
      "èµ°": 1356,
      "åĳ¢": 1357,
      "åħ³ç³»": 1358,
      "æŁĲ": 1359,
      "å°ıè¯´": 1360,
      "çĦ¶åĲİ": 1361,
      "åı¦": 1362,
      "ä»ħ": 1363,
      "ï¼ļâĢľ": 1364,
      "è´Ł": 1365,
      "æĹħæ¸¸": 1366,
      "è¿ĩç¨ĭ": 1367,
      "åįĹ": 1368,
      "æ¯ıä¸ª": 1369,
      "å£«": 1370,
      "ç½®": 1371,
      "åŃĺåľ¨": 1372,
      "æĢ»ç»ĵ": 1373,
      "å¤§çļĦ": 1374,
      "åİħ": 1375,
      "èģĮ": 1376,
      "è§£éĩĬ": 1377,
      "èĢĥèĻĳ": 1378,
      "å¾·": 1379,
      "æĪĲåĬŁ": 1380,
      "æĭī": 1381,
      "è´¨éĩı": 1382,
      "è¾¹": 1383,
      "æĹ©": 1384,
      "çļĦæ°": 1385,
      "ç®¡çĲĨ": 1386,
      "éĻį": 1387,
      "èĽĭ": 1388,
      "çļĦæĢ": 1389,
      "åŃ¦çĶŁ": 1390,
      "æĺ¾": 1391,
      "ĳæĪĺ": 1392,
      "åĦ": 1393,
      "æĪ¿": 1394,
      "çŃīçŃī": 1395,
      "èŀ": 1396,
      "ªæĸ½": 1397,
      "æ®µèĲ½": 1398,
      "è¡Įä¸º": 1399,
      "ç¾İåĽ½": 1400,
      "ä¸ľ": 1401,
      "æĪĳæĥ³": 1402,
      "éĶĻè¯¯": 1403,
      "åĮ»çĶŁ": 1404,
      "å¢ŀåĬł": 1405,
      "ä¸Ģç¯ĩ": 1406,
      "è¾ĳ": 1407,
      "çĨ": 1408,
      "ä¼¼": 1409,
      "å°Ŀè¯ķ": 1410,
      "äºĶ": 1411,
      "çħ§": 1412,
      "å¯¹è¯Ŀ": 1413,
      "å®ĮæĪĲ": 1414,
      "æ¦Ĥ": 1415,
      "å¯Ĩ": 1416,
      "çİ©": 1417,
      "æĺ¯ä»Ģä¹Ī": 1418,
      "å¹¿æ³Ľ": 1419,
      "ç±³": 1420,
      "ä¸ĭéĿ¢": 1421,
      "ä½ľä¸º": 1422,
      "åĪ©çĶ¨": 1423,
      "çĶ»": 1424,
      "è¿Ļæ®µ": 1425,
      "ä¸įåĲĮçļĦ": 1426,
      "çģ«": 1427,
      "èĩªåĬ¨": 1428,
      "æľĢåĲİ": 1429,
      "é¥®é£Ł": 1430,
      "æĭ¥": 1431,
      "æļĸ": 1432,
      "çİĭ": 1433,
      "éģ¿": 1434,
      "åĴĸ": 1435,
      "å½ĵçĦ¶": 1436,
      "æ¿": 1437,
      "é£Łçī©": 1438,
      "è®Ń": 1439,
      "çļĦåıĳå±ķ": 1440,
      "å®³": 1441,
      "å¾ĹåĪ°": 1442,
      "æµİ": 1443,
      "åı°": 1444,
      "æĽ´å¥½åľ°": 1445,
      "åĽ¢": 1446,
      "ç¡®ä¿Ŀ": 1447,
      "å¿µ": 1448,
      "åı¯èĥ½ä¼ļ": 1449,
      "çļĦåľ°": 1450,
      "çļĦæķ°": 1451,
      "ä¼ģ": 1452,
      "çļĦä¿¡æģ¯": 1453,
      "ãĢĤ\\": 1454,
      "ä»»ä½ķ": 1455,
      "æ°ĶåĢĻ": 1456,
      "äºļ": 1457,
      "ç®Ĺæ³ķ": 1458,
      "åķ¡": 1459,
      "èŀį": 1460,
      "çļĦåºĶçĶ¨": 1461,
      "äº¬": 1462,
      "ä¸įæĺ¯": 1463,
      "æłĩé¢ĺ": 1464,
      "äº§çĶŁ": 1465,
      "éĻĲ": 1466,
      "æĤ¨çļĦ": 1467,
      "åĴĸåķ¡": 1468,
      "æĥħåĨµ": 1469,
      "æ´ģ": 1470,
      "æĵ": 1471,
      "å®¤": 1472,
      "å¸ĮæľĽ": 1473,
      "æķħäºĭ": 1474,
      "èįī": 1475,
      "èİ·å¾Ĺ": 1476,
      "æį¢": 1477,
      "è¿ĺæľī": 1478,
      "åł": 1479,
      "éĽ¨": 1480,
      "äººçļĦ": 1481,
      "ç»ľ": 1482,
      "äº¤éĢļ": 1483,
      "æĢİ": 1484,
      "å·´": 1485,
      "è¾ĵåħ¥": 1486,
      "çĽ®æłĩ": 1487,
      "åĦ¿": 1488,
      "ç»ıæµİ": 1489,
      "è¿Ļæł·": 1490,
      "çĶŁæĪĲä¸Ģä¸ª": 1491,
      "å¹²": 1492,
      "é»Ħ": 1493,
      "è¡¨ç¤º": 1494,
      "é¦ĸåħĪ": 1495,
      "çĶ¨äºİ": 1496,
      "åı¯ä»¥å¸®åĬ©": 1497,
      "éħĴ": 1498,
      "è¡£": 1499,
      "é£ŀ": 1500,
      "éĥ½æĺ¯": 1501,
      "ç³ĸæŀľ": 1502,
      "ä¼Ĺ": 1503,
      "å¾ģ": 1504,
      "æľīæķĪ": 1505,
      "é¤Ĳåİħ": 1506,
      "çļĦä¸»è¦ģ": 1507,
      "ä½łåı¯ä»¥": 1508,
      "éĺħ": 1509,
      "åĮħåĲ«": 1510,
      "çīĽ": 1511,
      "çļĦæł": 1512,
      "ç©¿": 1513,
      "åºĹ": 1514,
      "æĹħè¡Į": 1515,
      "æī¾åĪ°": 1516,
      "å¾Ģ": 1517,
      "æķĻèĤ²": 1518,
      "å±ŀ": 1519,
      "åºŃ": 1520,
      "ç»ĵæŀľ": 1521,
      "ç®Ģåįķ": 1522,
      "¡æŁĵ": 1523,
      "éľĢæ±Ĥ": 1524,
      "æ¸¸æĪı": 1525,
      "æ¿Ģ": 1526,
      "çļĦéĩįè¦ģ": 1527,
      "éĥ¨åĪĨ": 1528,
      "éº": 1529,
      "åĳĬè¯īæĪĳ": 1530,
      "ä½¿åħ¶": 1531,
      "åĿĩ": 1532,
      "éģ¿åħį": 1533,
      "éĩĩåıĸ": 1534,
      "æ©": 1535,
      "å±ħ": 1536,
      "æ½": 1537,
      "è§ĤçĤ¹": 1538,
      "åĩłä¸ª": 1539,
      "æİªæĸ½": 1540,
      "ç½ĳç»ľ": 1541,
      "åĪ¶ä½ľ": 1542,
      "çīĮ": 1543,
      "åĩĨç¡®": 1544,
      "ä¹Łæĺ¯": 1545,
      "æľīåħ³": 1546,
      "å¾®": 1547,
      "ä»¤": 1548,
      "äºī": 1549,
      "æĮģç»Ń": 1550,
      "æĶ¯æĮģ": 1551,
      "èĥ½æºĲ": 1552,
      "ä¸ĩ": 1553,
      "ä½ĵéªĮ": 1554,
      "åª": 1555,
      "é±": 1556,
      "èµ·æĿ¥": 1557,
      "äºĨä¸Ģä¸ª": 1558,
      "é±¼": 1559,
      "ä½ľçĶ¨": 1560,
      "åī§": 1561,
      "ä¼ģä¸ļ": 1562,
      "è¡¨çİ°": 1563,
      "éĩįè¦ģçļĦ": 1564,
      "ç«Ļ": 1565,
      "ç»¿": 1566,
      "ä¸įèĥ½": 1567,
      "çĽĬ": 1568,
      "é¼": 1569,
      "çĳ": 1570,
      "æłĳ": 1571,
      "åıĳçĶŁ": 1572,
      "ä»ĸä»¬çļĦ": 1573,
      "ä¹Łåı¯ä»¥": 1574,
      "00": 1575,
      "èĵ": 1576,
      "èī¯": 1577,
      "éĺħè¯»": 1578,
      "åĪĩ": 1579,
      "å°ıçº¢": 1580,
      "èĩªçĦ¶è¯Ńè¨Ģ": 1581,
      "æ¤į": 1582,
      "¾çĹħ": 1583,
      "é¾": 1584,
      "çĶ±äºİ": 1585,
      "çİ°ä»£": 1586,
      "ä¸īä¸ª": 1587,
      "å¤ľ": 1588,
      "åĵªäºĽ": 1589,
      "åĪ¤": 1590,
      "ç¤¾äº¤": 1591,
      "å®Ŀ": 1592,
      "å¾ħ": 1593,
      "ç¬¦": 1594,
      "æ²¹": 1595,
      "æĭ¥æľī": 1596,
      "åŁºäºİ": 1597,
      "å¥¶": 1598,
      "âĢĿï¼Į": 1599,
      "æ¹": 1600,
      "åĬłåħ¥": 1601,
      "åħ³æ³¨": 1602,
      "çº§": 1603,
      "å¥ĩ": 1604,
      "è¿ĺæĺ¯": 1605,
      "èī²çļĦ": 1606,
      "ç»ĩ": 1607,
      "è¯Ĭ": 1608,
      "æ±¡æŁĵ": 1609,
      "åıĪ": 1610,
      "å¦Ĥæŀľä½ł": 1611,
      "é¢ľ": 1612,
      "éģĩ": 1613,
      "åĬª": 1614,
      "ä¸¾": 1615,
      "åºľ": 1616,
      "åĿĹ": 1617,
      "ï¼Ł<|": 1618,
      "é¦Ĩ": 1619,
      "åĩºçİ°": 1620,
      "è¿ŀ": 1621,
      "çļĦæĸĩç«ł": 1622,
      "ä¸°": 1623,
      "é¸¡": 1624,
      "ç±»åŀĭ": 1625,
      "ä»¥ä¸ĭåı¥åŃĲ": 1626,
      "ç¡®å®ļ": 1627,
      "åĪ»": 1628,
      "å®¶åºŃ": 1629,
      "æĮĳæĪĺ": 1630,
      "æĺ¥": 1631,
      "å®¢æĪ·": 1632,
      "èµĦæºĲ": 1633,
      "çļĦæİ": 1634,
      "åĬªåĬĽ": 1635,
      "åĶ®": 1636,
      "è½¯": 1637,
      "ç¿»": 1638,
      "èĪĴ": 1639,
      "èį¯": 1640,
      "è®Ńç»ĥ": 1641,
      "æİ§åĪ¶": 1642,
      "èĻ½": 1643,
      "æľīè¶£": 1644,
      "éĿĻ": 1645,
      "æĢ§åĴĮ": 1646,
      "æķ£": 1647,
      "è¿½": 1648,
      "åĬŁèĥ½": 1649,
      "è¿Ļæĺ¯": 1650,
      "ä»İèĢĮ": 1651,
      "èĦĳ": 1652,
      "çļĦæĬĢ": 1653,
      "æŃ£ç¡®": 1654,
      "åıĹåĪ°": 1655,
      "æĸ¹æ¡Ī": 1656,
      "çļĦåı¥åŃĲ": 1657,
      "çļĦæĻ": 1658,
      "ä¸ºäºĨ": 1659,
      "ç§ĭ": 1660,
      "é¸Ł": 1661,
      "æ£Ģ": 1662,
      "ä¸¥": 1663,
      "æĬķ": 1664,
      "éŃ": 1665,
      "èŃ": 1666,
      "è§Ĵèī²": 1667,
      "æ²»çĸĹ": 1668,
      "æĤ¨åı¯ä»¥": 1669,
      "åħ¸": 1670,
      "çĸ¾çĹħ": 1671,
      "é¢Ħæµĭ": 1672,
      "èīºæľ¯": 1673,
      "å±Ĥ": 1674,
      "æ²Ļ": 1675,
      "çļĦç¾": 1676,
      "å½Ĵ": 1677,
      "åİĭåĬĽ": 1678,
      "ç¨ĭåºı": 1679,
      "æ¯Ķè¾ĥ": 1680,
      "æķĪçİĩ": 1681,
      "æİ¢ç´¢": 1682,
      "åģĩ": 1683,
      "äºĳ": 1684,
      "è¯¦": 1685,
      "äººå·¥æĻºèĥ½æĬĢæľ¯": 1686,
      "äºĭä»¶": 1687,
      "èĮĥ": 1688,
      "èĶ": 1689,
      "ä¸ĬçļĦ": 1690,
      "æĤ£": 1691,
      "æĿ¯": 1692,
      "è´Ńä¹°": 1693,
      "ä¼łç»Ł": 1694,
      "æĿĤ": 1695,
      "çļĦæĦı": 1696,
      "çŁ³": 1697,
      "èĻ½çĦ¶": 1698,
      "éĻ¢": 1699,
      "æľĢç»Ī": 1700,
      "éĨ": 1701,
      "ä¸įä»ħ": 1702,
      "æĿ¥è¶Ĭ": 1703,
      "æ°ĶåĢĻåıĺåĮĸ": 1704,
      "çĶŁçī©": 1705,
      "çĶŁåĳ½": 1706,
      "é²ľ": 1707,
      "è¶ĬæĿ¥è¶Ĭ": 1708,
      "æĮī": 1709,
      "ç¦ı": 1710,
      "çĶµåŃĲ": 1711,
      "æīįèĥ½": 1712,
      "æµª": 1713,
      "æĪĳä»¬éľĢè¦ģ": 1714,
      "éļıçĿĢ": 1715,
      "é£İéĻ©": 1716,
      "æ¥": 1717,
      "å°±æĺ¯": 1718,
      "æĽ²": 1719,
      "ä¸Ģä»½": 1720,
      "æ´ĭ": 1721,
      "è¯Ħè®º": 1722,
      "çķ¥": 1723,
      "æ±½": 1724,
      "åªĴ": 1725,
      "çĥ¤": 1726,
      "ä¸´": 1727,
      "ç¼º": 1728,
      "åĽ°": 1729,
      "ä¸Ģä½į": 1730,
      "åį¡": 1731,
      "è·ĳ": 1732,
      "æĿ¥è¯´": 1733,
      "çĵ": 1734,
      "èĥĮ": 1735,
      "åı¶": 1736,
      "åĨ°": 1737,
      "æĢİä¹Ī": 1738,
      "å»ºç«ĭ": 1739,
      "ç¼ĸè¾ĳ": 1740,
      "ä¸°å¯Į": 1741,
      "åĪĽéĢł": 1742,
      "æĶ¿åºľ": 1743,
      "åİŁåĽł": 1744,
      "æĻ®": 1745,
      "å½©": 1746,
      "ä»·åĢ¼": 1747,
      "èĩªçĦ¶è¯Ńè¨Ģå¤ĦçĲĨ": 1748,
      "è¯¦ç»Ĩ": 1749,
      "æĿĥ": 1750,
      "åĿļ": 1751,
      "èĵĿ": 1752,
      "æł¡": 1753,
      "çļĦæī": 1754,
      "æ°´æŀľ": 1755,
      "æ¯ĶèµĽ": 1756,
      "åĳ¼": 1757,
      "æĽ´å¤ļçļĦ": 1758,
      "çļĦç¾İ": 1759,
      "åĽłç´ł": 1760,
      "çĶŁæĢģ": 1761,
      "è¡¨æĺİ": 1762,
      "å¤ļå°ĳ": 1763,
      "ä½ľèĢħ": 1764,
      "è¯Ńæ³ķ": 1765,
      "äº²": 1766,
      "èľ": 1767,
      "æĸĩæ¡Ī": 1768,
      "æĹ¶åĢĻ": 1769,
      "ä¹ĭéĹ´çļĦ": 1770,
      "è¯ĬæĸŃ": 1771,
      "ç¬Ķ": 1772,
      "æĶ¹åıĺ": 1773,
      "æĹı": 1774,
      "ç»Ħç»ĩ": 1775,
      "åħ¬åĽŃ": 1776,
      "åĩĨå¤ĩ": 1777,
      "ä»¥ä¸ĭæĸĩæľ¬": 1778,
      "è¿ĺåı¯ä»¥": 1779,
      "åĬŀ": 1780,
      "å³": 1781,
      "èĴ": 1782,
      "æľºä¼ļ": 1783,
      "é¢ĺçĽ®": 1784,
      "è¯·éĹ®": 1785,
      "ä½ı": 1786,
      "ä¿ĥ": 1787,
      "é¢Ĺ": 1788,
      "çļĦæĥħæĦŁ": 1789,
      "çªģ": 1790,
      "æĿĲæĸĻ": 1791,
      "çĶŁäº§": 1792,
      "çĽĳ": 1793,
      "ç¼ĵ": 1794,
      "éĴŁ": 1795,
      "åĲįç§°": 1796,
      "è¿İ": 1797,
      "é£İæł¼": 1798,
      "ç»ĵæŀĦ": 1799,
      "çķĻ": 1800,
      "å°¼": 1801,
      "çĻ¾": 1802,
      "çļĦæĸ¹æ³ķ": 1803,
      "å½ĵåľ°": 1804,
      "å¹´è½»": 1805,
      "ç»ıéªĮ": 1806,
      "å®ĥçļĦ": 1807,
      "çī¹å¾ģ": 1808,
      "åıĺå¾Ĺ": 1809,
      "çĸ«": 1810,
      "æ³¢": 1811,
      "äº®": 1812,
      "çłģ": 1813,
      "é£Łåĵģ": 1814,
      "çĤ¼": 1815,
      "è¡Įä¸ļ": 1816,
      "åľ¨è¿Ļä¸ª": 1817,
      "åķĨåĵģ": 1818,
      "äº«åıĹ": 1819,
      "å¤§éĩı": 1820,
      "é¢ľèī²": 1821,
      "å¯»æī¾": 1822,
      "åªĴä½ĵ": 1823,
      "å¦ĤæŀľæĤ¨": 1824,
      "è¡¡": 1825,
      "å¼Ĥ": 1826,
      "å¿ĥçĲĨ": 1827,
      "çļĦæµ": 1828,
      "ç½Ĺ": 1829,
      "çļĦæĸĩæľ¬": 1830,
      "éĿĴ": 1831,
      "æĭŁ": 1832,
      "æľ¨": 1833,
      "åĤ": 1834,
      "è®¨è®º": 1835,
      "è¡ĮåĬ¨": 1836,
      "è´£": 1837,
      "çļ®": 1838,
      "æ´²": 1839,
      "åĲ§": 1840,
      "é¡»": 1841,
      "è´ŁéĿ¢": 1842,
      "ä¸Ģå®ļ": 1843,
      "åħħæ»¡": 1844,
      "åıĤåĬł": 1845,
      "å¨ģ": 1846,
      "ä¸ºä»Ģä¹Ī": 1847,
      "ĥåľ": 1848,
      "âĢĿãĢĤ": 1849,
      "å¼Ģåıĳ": 1850,
      "è¯ĳ": 1851,
      "èĳĹåĲį": 1852,
      "ä»·æł¼": 1853,
      "æ¯ıä¸ªäºº": 1854,
      "åŀĥåľ": 1855,
      "åŀĥåľ¾": 1856,
      "ä¼¤": 1857,
      "éĥ¨çĶµå½±": 1858,
      "æ¯ıå¤©": 1859,
      "ä¸Ńå¿ĥ": 1860,
      "å·¥åħ·": 1861,
      "çŁ¥è¯Ĩ": 1862,
      "ĊĊ": 1863,
      "ãĢĤ\"": 1864,
      "æ±½è½¦": 1865,
      "ä¸ĢæŃ¥": 1866,
      "è®¾å¤ĩ": 1867,
      "æ¯į": 1868,
      "ç¾¤": 1869,
      "æ»©": 1870,
      "åħ´è¶£": 1871,
      "åĩºäºĨ": 1872,
      "èĶ¬": 1873,
      "ç´§": 1874,
      "åĮĹäº¬": 1875,
      "åľºæĻ¯": 1876,
      "ä½ľåĵģ": 1877,
      "åĵģçīĮ": 1878,
      "ä¸ĵä¸ļ": 1879,
      "ä»į": 1880,
      "æĶ¹åĸĦ": 1881,
      "åľŁ": 1882,
      "éĤ®": 1883,
      "è¿Ļä¸ªéĹ®é¢ĺ": 1884,
      "çļĦæ¸": 1885,
      "æł¹æį®ç»Ļå®ļçļĦ": 1886,
      "æĽ¿": 1887,
      "çļĦæķħäºĭ": 1888,
      "æĪĳä¼ļ": 1889,
      "è®²è¿°": 1890,
      "è¿Ļåı¥è¯Ŀ": 1891,
      "ç¾İä¸½": 1892,
      "çļĦæŃ": 1893,
      "çļĦæĶ": 1894,
      "å¸®æĪĳ": 1895,
      "éĩİ": 1896,
      "èĪĴéĢĤ": 1897,
      "åĪĽæĸ°": 1898,
      "éĺ¿": 1899,
      "çľł": 1900,
      "ä¸ĢçĽ´": 1901,
      "æīĭæľº": 1902,
      "ç§ĺ": 1903,
      "åº§": 1904,
      "æ¼«": 1905,
      "æ·±åº¦": 1906,
      "è¯¢": 1907,
      "åĩ»": 1908,
      "çļĦçĶµå½±": 1909,
      "æĶ¾æĿ¾": 1910,
      "é¡¹çĽ®": 1911,
      "åŃ©åŃĲ": 1912,
      "èĥľ": 1913,
      "çģµ": 1914,
      "çŃĳ": 1915,
      "éĢłæĪĲ": 1916,
      "æħ¢": 1917,
      "éĢĲ": 1918,
      "å·ŀ": 1919,
      "è¶ĭ": 1920,
      "éĩįæĸ°": 1921,
      "19": 1922,
      "éĩĳèŀį": 1923,
      "è§īå¾Ĺ": 1924,
      "å·¨": 1925,
      "ä¼ĳ": 1926,
      "çł´": 1927,
      "ä»¥ä¸ĭæĺ¯": 1928,
      "çĩ": 1929,
      "äºĭæĥħ": 1930,
      "åĲ¸å¼ķ": 1931,
      "åĪ¤æĸŃ": 1932,
      "åĨ³å®ļ": 1933,
      "èģĬ": 1934,
      "èĶ¬èıľ": 1935,
      "éĢģ": 1936,
      "å½ķ": 1937,
      "æ¤įçī©": 1938,
      "çļĦçŁ": 1939,
      "çĹĩ": 1940,
      "èĢĮä¸Ķ": 1941,
      "çĿ¡": 1942,
      "ä¸ŃæıĲåıĸåĩº": 1943,
      "èŃ¦": 1944,
      "æķ°åŃĹ": 1945,
      "åį°": 1946,
      "åĨĽ": 1947,
      "éĶ»": 1948,
      "åįı": 1949,
      "å·®": 1950,
      "åī©": 1951,
      "åı¦å¤ĸ": 1952,
      "éļĲ": 1953,
      "éĶ»çĤ¼": 1954,
      "ä½³": 1955,
      "æŃ¢": 1956,
      "æĪĳåı¯ä»¥": 1957,
      "é©¶": 1958,
      "ä¸Ģæ¬¡": 1959,
      "æ¸Ĳ": 1960,
      "æĢ§çļĦ": 1961,
      "çľĭåĪ°": 1962,
      "å»ºçŃĳ": 1963,
      "ç¿»è¯ĳ": 1964,
      "å°Ĭ": 1965,
      "éĩĩçĶ¨": 1966,
      "æľīä»Ģä¹Ī": 1967,
      "æ²³": 1968,
      "éĶĢåĶ®": 1969,
      "åı¯æĮģç»Ń": 1970,
      "çºª": 1971,
      "æĩ": 1972,
      "çľ¼": 1973,
      "è¶ĭåĬ¿": 1974,
      "å¿ħé¡»": 1975,
      "èª": 1976,
      "é¢ĳ": 1977,
      "æ°§": 1978,
      "ç®Ģæ´ģ": 1979,
      "æĸĩç«łä¸Ń": 1980,
      "å°Ĩåħ¶": 1981,
      "æ¢¦": 1982,
      "åĽ¢éĺŁ": 1983,
      "æĺ¨": 1984,
      "ä¸įä¼ļ": 1985,
      "éĴ±": 1986,
      "æĿ¿": 1987,
      "é©¾": 1988,
      "ç»ª": 1989,
      "ç§ģ": 1990,
      "åĪ¶å®ļ": 1991,
      "ä»¥ä¸Ĭ": 1992,
      "åĬ©äºİ": 1993,
      "åį«": 1994,
      "åĵĪ": 1995,
      "å¤įæĿĤ": 1996,
      "åĪĿ": 1997,
      "çļĦçł": 1998,
      "å¿«éĢŁ": 1999,
      "åĬ±": 2000,
      "åľ°åĮº": 2001,
      "çī¹çĤ¹": 2002,
      "èĩªçĶ±": 2003,
      "Ġ\"": 2004,
      "æķ°åŃ¦": 2005,
      "è¿Ļæ®µæĸĩæľ¬": 2006,
      "çī¹åĪ«": 2007,
      "æ¶ī": 2008,
      "ä¸Ģåıª": 2009,
      "éĥ½æľī": 2010,
      "ä»£è¡¨": 2011,
      "å±ŀäºİ": 2012,
      "çĦ¶èĢĮ": 2013,
      "æĥ³è¦ģ": 2014,
      "åĨľ": 2015,
      "çļĦæĳ": 2016,
      "æĺ¯åľ¨": 2017,
      "æĸĩåŃĹ": 2018,
      "æĳĦ": 2019,
      "èģĮä¸ļ": 2020,
      "æĥ¯": 2021,
      "çļĦæ²": 2022,
      "è´¢": 2023,
      "å¿Ĺ": 2024,
      "è¡Ģ": 2025,
      "çĽ®åīį": 2026,
      "èĹ": 2027,
      "ä¸ºæĤ¨": 2028,
      "è¯Ħä»·": 2029,
      "çĸĳ": 2030,
      "å®ŀä½ĵ": 2031,
      "æĲŃ": 2032,
      "ä¼¦": 2033,
      "ä¾Ŀ": 2034,
      "éĻįä½İ": 2035,
      "åĨ·": 2036,
      "éĴĪ": 2037,
      "å°ļ": 2038,
      "éĺ³åħī": 2039,
      "ç»ıåİĨ": 2040,
      "å²ģ": 2041,
      "å°½ç®¡": 2042,
      "åºķ": 2043,
      "åĲĪä½ľ": 2044,
      "å©": 2045,
      "æĬ¥éģĵ": 2046,
      "åħ¬åı¸çļĦ": 2047,
      "å¾Īå¥½": 2048,
      "åı¯ä»¥éĢļè¿ĩ": 2049,
      "çļĦçĶŁæ´»": 2050,
      "æ·»": 2051,
      "ä¸įè¦ģ": 2052,
      "éĤ®ä»¶": 2053,
      "æĺ¯æĮĩ": 2054,
      "ç²ī": 2055,
      "çļĦæĮ": 2056,
      "äººå·¥æĻºèĥ½åľ¨": 2057,
      "åĬłå¼º": 2058,
      "çĽĸ": 2059,
      "ç»§": 2060,
      "åįļ": 2061,
      "ç®ĢçŁŃ": 2062,
      "æķ°éĩı": 2063,
      "çī©è´¨": 2064,
      "ç¼ĸåĨĻ": 2065,
      "ä¿ĥè¿Ľ": 2066,
      "ä½łèĥ½": 2067,
      "æĥĬ": 2068,
      "çīĪ": 2069,
      "åħ±åĲĮ": 2070,
      "çļĦæĦŁ": 2071,
      "ç¾İé£Ł": 2072,
      "è®©æĪĳ": 2073,
      "å¼ºè°ĥ": 2074,
      "è¿ĻéĩĮ": 2075,
      "çļĦå»ºè®®": 2076,
      "æ±ĩ": 2077,
      "æľīåĬ©äºİ": 2078,
      "ä¸ĬæľĢ": 2079,
      "è¿Ļéĥ¨çĶµå½±": 2080,
      "å¹¸": 2081,
      "åĪļ": 2082,
      "å°Ħ": 2083,
      "çļĦæ¯": 2084,
      "æĹ¨": 2085,
      "ä¹łæĥ¯": 2086,
      "åŁºç¡": 2087,
      "è°¢è°¢": 2088,
      "åŁºç¡Ģ": 2089,
      "éĩįåĨĻ": 2090,
      "åıĮ": 2091,
      "æľīå¾Īå¤ļ": 2092,
      "ç¤¼": 2093,
      "èģĶç½ĳ": 2094,
      "æľīäºĽ": 2095,
      "èĻļ": 2096,
      "æķ´ä¸ª": 2097,
      "ä¸ĢåĲį": 2098,
      "ç§»": 2099,
      "ä½¿å¾Ĺ": 2100,
      "èĪŀ": 2101,
      "åĨ³çŃĸ": 2102,
      "éĵģ": 2103,
      "åĬĽåĴĮ": 2104,
      "åį´": 2105,
      "åĮ»åŃ¦": 2106,
      "äº¤æµģ": 2107,
      "å½¢å¼ı": 2108,
      "åį±": 2109,
      "ä¸įéĶĻ": 2110,
      "å±Ģ": 2111,
      "çļĦæķ°æį®": 2112,
      "æĬĢèĥ½": 2113,
      "å¡ĳ": 2114,
      "âĢĶ": 2115,
      "åįĪ": 2116,
      "èĮ¶": 2117,
      "è¿Ļæĺ¯ä¸Ģ": 2118,
      "æĤ£èĢħ": 2119,
      "ç¥¨": 2120,
      "å®ĩ": 2121,
      "åŁºæľ¬": 2122,
      "æľ¬æĸĩ": 2123,
      "æĬĢå·§": 2124,
      "æľºåĻ¨äºº": 2125,
      "å¯Ł": 2126,
      "å¹»": 2127,
      "çļĦæı": 2128,
      "æ¯Ĵ": 2129,
      "èģĶç³»": 2130,
      "çļĦç¤": 2131,
      "è¯´æĺİ": 2132,
      "çī¹å®ļ": 2133,
      "åı«": 2134,
      "Ġ-": 2135,
      "çŃīæĸ¹éĿ¢": 2136,
      "èķ": 2137,
      "ä»¤äºº": 2138,
      "æĭħ": 2139,
      "æİ¢è®¨": 2140,
      "åķĬ": 2141,
      "å¢ŀå¼º": 2142,
      "é¥Ń": 2143,
      "åĪĨéĴŁ": 2144,
      "æĢĿèĢĥ": 2145,
      "è¿ĩç¨ĭä¸Ń": 2146,
      "ç¹": 2147,
      "åįĥ": 2148,
      "æ¯Ľ": 2149,
      "åĸĿ": 2150,
      "çĭ¬çī¹": 2151,
      "è®©äºº": 2152,
      "æıĲåĪ°": 2153,
      "ä¸ªèĭ¹æŀľ": 2154,
      "å®£": 2155,
      "ä½įç½®": 2156,
      "èĢģå¸Ī": 2157,
      "å³°": 2158,
      "ç«ŀ": 2159,
      "è±Ĩ": 2160,
      "çº³": 2161,
      "æ¬¢è¿İ": 2162,
      "è¯ŃéŁ³": 2163,
      "æĸĩæľ¬ä¸Ń": 2164,
      "èĸ": 2165,
      "ç¬¬äºĮ": 2166,
      "éŀ": 2167,
      "æĬ½": 2168,
      "ä»ĺ": 2169,
      "å¥¥": 2170,
      "æ©Ļ": 2171,
      "åıªæľī": 2172,
      "åĿĲ": 2173,
      "éĢŁåº¦": 2174,
      "ä»¥ä¾¿": 2175,
      "è¡ĮæĺŁ": 2176,
      "ç«¯": 2177,
      "ç»Ŀ": 2178,
      "æĸĩåŃ¦": 2179,
      "éĢı": 2180,
      "è¿Ľä¸ĢæŃ¥": 2181,
      "èģļ": 2182,
      "æĦŁè§ī": 2183,
      "è·Ł": 2184,
      "è¯¾": 2185,
      "è¾ĵåĩº": 2186,
      "å®¹æĺĵ": 2187,
      "æĦŁè°¢": 2188,
      "ç¤¾äº¤åªĴä½ĵ": 2189,
      "å½¢æĪĲ": 2190,
      "æī§": 2191,
      "çģ¾": 2192,
      "æŃ£éĿ¢": 2193,
      "ä¹ħ": 2194,
      "çļĦæ°´": 2195,
      "ä½Ļ": 2196,
      "é¡º": 2197,
      "çļĦçľ": 2198,
      "æĦ¿": 2199,
      "çĦ¦": 2200,
      "é¹": 2201,
      "é©¾é©¶": 2202,
      "çĮ®": 2203,
      "ç»ĦæĪĲ": 2204,
      "ç¬ĳ": 2205,
      "è¿Ļæĺ¯ä¸Ģä¸ª": 2206,
      "å®ŀéĻħ": 2207,
      "æ¶īåıĬ": 2208,
      "çıŃ": 2209,
      "å¤§åĪ©": 2210,
      "æ·±åº¦åŃ¦ä¹ł": 2211,
      "çĥĪ": 2212,
      "åĪĽæĦı": 2213,
      "çļĦæĬĢæľ¯": 2214,
      "è¿Ļä¸Ģ": 2215,
      "åģ¥èº«": 2216,
      "èĪ¬": 2217,
      "èĪª": 2218,
      "æ¦Ĥæĭ¬": 2219,
      "åįĬ": 2220,
      "ç»ĥä¹ł": 2221,
      "åģļåĩº": 2222,
      "åŃ¦æł¡": 2223,
      "é¾Ļ": 2224,
      "çļĦä¸»é¢ĺ": 2225,
      "ä¸įåı¯": 2226,
      "æĿ¡ä»¶": 2227,
      "åıĺæļĸ": 2228,
      "äººåĳĺ": 2229,
      "åĲįåŃĹ": 2230,
      "é¼ĵ": 2231,
      "æıĲä¾ĽäºĨ": 2232,
      "èĲ¥åħ»": 2233,
      "ç»§ç»Ń": 2234,
      "çļĦæĹ¶éĹ´": 2235,
      "ç¼ĸç¨ĭ": 2236,
      "åĳĺå·¥": 2237,
      "åĲįè¯į": 2238,
      "çİĽ": 2239,
      "æĦıè¯Ĩ": 2240,
      "éĵ¾": 2241,
      "æķħ": 2242,
      "åı¯ä»¥åľ¨": 2243,
      "ç»ıå¸¸": 2244,
      "é«ĺçļĦ": 2245,
      "æĸ¹åĲĳ": 2246,
      "è´Ńçī©": 2247,
      "èĥĮæĻ¯": 2248,
      "èĩªæĪĳ": 2249,
      "åĨ¬": 2250,
      "éĢĤå½ĵ": 2251,
      "æĦıä¹ī": 2252,
      "éĵ¶": 2253,
      "æ°´å¹³": 2254,
      "å¤ļä¸ª": 2255,
      "èĮĥåĽ´": 2256,
      "ä»İæĸĩç«ł": 2257,
      "é¢Ŀ": 2258,
      "çļĦå¤©æ°Ķ": 2259,
      "æĭ¿": 2260,
      "å¤ļç§į": 2261,
      "è¯ĹæŃĮ": 2262,
      "åĽ¾åĥı": 2263,
      "åħ°": 2264,
      "ä¸¥éĩį": 2265,
      "å®ĺ": 2266,
      "åĳ¼åĲ¸": 2267,
      "çī©åĵģ": 2268,
      "ä¼´": 2269,
      "æĮīçħ§": 2270,
      "éŀĭ": 2271,
      "å¦Ĥä¸ĭ": 2272,
      "åºĶå¯¹": 2273,
      "è¿·": 2274,
      "çļĦå°ı": 2275,
      "å®ł": 2276,
      "èĲ¨": 2277,
      "å¸¸è§ģ": 2278,
      "å¤ıå¤©": 2279,
      "æ¸ħæĻ": 2280,
      "æ»¡è¶³": 2281,
      "ç¢³": 2282,
      "åĲĮæĹ¶ä¹Ł": 2283,
      "è½¯ä»¶": 2284,
      "å¹³è¡¡": 2285,
      "æ´ŀ": 2286,
      "å¯¹è¯ĿåĨħå®¹": 2287,
      "æľ«": 2288,
      "é¡¾": 2289,
      "çŁŃè¯Ń": 2290,
      "æĬ±": 2291,
      "åİ»äºĨ": 2292,
      "ä¼ļè®®": 2293,
      "ä¼°": 2294,
      "éª¤": 2295,
      "ç±»åĪ«": 2296,
      "æ£ĢæŁ¥": 2297,
      "çļĦçĪ": 2298,
      "åĢĭ": 2299,
      "åĭĩ": 2300,
      "ä¸ĭæĿ¥": 2301,
      "è¯·ä½ł": 2302,
      "15": 2303,
      "æĽ¾": 2304,
      "çĨŁ": 2305,
      "ç»ıåħ¸": 2306,
      "éĽª": 2307,
      "çºł": 2308,
      "æľ¬ä¹¦": 2309,
      "ç¹ģ": 2310,
      "èµı": 2311,
      "æĲľ": 2312,
      "å¼ķèµ·": 2313,
      "æıĲåĪ°äºĨ": 2314,
      "äºĭå®ŀ": 2315,
      "ç©ºæ°Ķ": 2316,
      "æľĹ": 2317,
      "çļĦæłĩ": 2318,
      "ä½įäºİ": 2319,
      "åŃ¤": 2320,
      "åģı": 2321,
      "åıĤä¸İ": 2322,
      "åĿı": 2323,
      "è¸": 2324,
      "æ´Ĺ": 2325,
      "è¯»èĢħ": 2326,
      "Ġåľ¨": 2327,
      "åħĥç´ł": 2328,
      "éŃĶ": 2329,
      "çļĦåħ³éĶ®": 2330,
      "æĬķèµĦ": 2331,
      "çĶµè§Ĩ": 2332,
      "æĦī": 2333,
      "å½ĵçĦ¶åı¯ä»¥": 2334,
      "ä»Ģä¹Īæĺ¯": 2335,
      "æ³³": 2336,
      "åķĨä¸ļ": 2337,
      "æĹ¥å¸¸": 2338,
      "ç¨³": 2339,
      "æĽ´å¥½çļĦ": 2340,
      "æĺ¨å¤©": 2341,
      "è°Ī": 2342,
      "åĪĨäº«": 2343,
      "ç§ĳåŃ¦å®¶": 2344,
      "éĿ¢ä¸´": 2345,
      "çľģ": 2346,
      "åĩºæĿ¥": 2347,
      "çļĦçłĶç©¶": 2348,
      "æŁĶ": 2349,
      "çķħ": 2350,
      "å§Ĩ": 2351,
      "åĢ¼å¾Ĺ": 2352,
      "çļĦæĸ¹å¼ı": 2353,
      "æ¸©åº¦": 2354,
      "çĶľ": 2355,
      "æ²ī": 2356,
      "è·Ŀ": 2357,
      "åģľ": 2358,
      "æİĴæĶ¾": 2359,
      "è´µ": 2360,
      "éĢĶ": 2361,
      "æ·»åĬł": 2362,
      "è¿ĩåİ»": 2363,
      "å®łçī©": 2364,
      "åĬĽéĩı": 2365,
      "éĢīé¡¹": 2366,
      "é¥°": 2367,
      "æľīçĿĢ": 2368,
      "æĪĳåĸľæ¬¢": 2369,
      "çĨĬ": 2370,
      "éħ±": 2371,
      "è¶ħè¿ĩ": 2372,
      "æķĪæŀľ": 2373,
      "èĤ¡": 2374,
      "è°ģ": 2375,
      "çİ°å®ŀ": 2376,
      "å²Ľ": 2377,
      "åı£æĦŁ": 2378,
      "å°Ĩä¼ļ": 2379,
      "éħ¸": 2380,
      "éĻĪ": 2381,
      "ç³»åĪĹ": 2382,
      "ï¼ģ<|": 2383,
      "åĽ½å®¶": 2384,
      "çļĦå·¥ä½ľ": 2385,
      "çļĦç¬": 2386,
      "ç¾İåĳ³": 2387,
      "ä¼½": 2388,
      "ï¼ĮâĢľ": 2389,
      "æŃ»": 2390,
      "å¹³åĿĩ": 2391,
      "å¥ĸ": 2392,
      "æĴŃ": 2393,
      "è¿ĽæŃ¥": 2394,
      "éľ²": 2395,
      "å¤«": 2396,
      "éĿł": 2397,
      "æ¬§": 2398,
      "ç³ķ": 2399,
      "æ£®": 2400,
      "å¿ĺ": 2401,
      "å¤§åŃ¦": 2402,
      "äººçī©": 2403,
      "æİĮ": 2404,
      "å®Ļ": 2405,
      "ç¥ŀç»ı": 2406,
      "çļĦæ®": 2407,
      "æľĢåĸľæ¬¢": 2408,
      "åĪĽå»º": 2409,
      "åħ¨çĲĥåıĺæļĸ": 2410,
      "éĢĤåºĶ": 2411,
      "èĨ": 2412,
      "çŃīé¢ĨåŁŁ": 2413,
      "éĴĪå¯¹": 2414,
      "æĺİå¤©": 2415,
      "ä»İè¿Ļç¯ĩæĸĩç«ł": 2416,
      "åŁ¹": 2417,
      "å¿Ĩ": 2418,
      "è´§": 2419,
      "12": 2420,
      "çļĦæĥħåĨµ": 2421,
      "äºĴèģĶç½ĳ": 2422,
      "æľīä¸Ģä¸ª": 2423,
      "ä¹īè¯į": 2424,
      "è°ĥæķ´": 2425,
      "å¥Ĺ": 2426,
      "å®ĩå®Ļ": 2427,
      "çļĦæľĢ": 2428,
      "åĨĻä½ľ": 2429,
      "ä¹³": 2430,
      "éĿ©": 2431,
      "çĽ¸åĲĮ": 2432,
      "åıĸå¾Ĺ": 2433,
      "çļĦåľ°æĸ¹": 2434,
      "åĲĪéĢĤ": 2435,
      "ľä¼½": 2436,
      "ä¿®æĶ¹": 2437,
      "è¿Ļä¸ªåı¥åŃĲ": 2438,
      "30": 2439,
      "çļĦæ´": 2440,
      "è§Ĩè§ī": 2441,
      "è®©æĪĳä»¬": 2442,
      "æ¸ħæĻ°": 2443,
      "æĪĳä»¬åºĶè¯¥": 2444,
      "çĪ±æĥħ": 2445,
      "åī©ä¸ĭ": 2446,
      "æ¥¼": 2447,
      "çº½": 2448,
      "å°ıæĹ¶": 2449,
      "æ³ķå¾ĭ": 2450,
      "éģĹ": 2451,
      "æĥħèĬĤ": 2452,
      "ä¸Ģé¦ĸ": 2453,
      "é«ĺæķĪ": 2454,
      "æ·±åħ¥": 2455,
      "æļĹ": 2456,
      "å½¢å®¹": 2457,
      "æı¡": 2458,
      "æī¿": 2459,
      "èĲ¥éĶĢ": 2460,
      "æ··": 2461,
      "åĽłä¸ºå®ĥ": 2462,
      "åĨĴ": 2463,
      "åĪĽä½ľ": 2464,
      "è·³": 2465,
      "åĽ°éļ¾": 2466,
      "æĹ¥æľ¬": 2467,
      "åĢĴ": 2468,
      "ä¸ªç³ĸæŀľ": 2469,
      "åľ°çĤ¹": 2470,
      "ç§Ģ": 2471,
      "èĹı": 2472,
      "æµ·æ´ĭ": 2473,
      "ä»ĭç»įäºĨ": 2474,
      "åºĬ": 2475,
      "æ±Ł": 2476,
      "çŃĸçķ¥": 2477,
      "çļĦæ®µ": 2478,
      "æ½ľ": 2479,
      "éļĲç§ģ": 2480,
      "è¶³å¤Ł": 2481,
      "è¯įæ±ĩ": 2482,
      "çĽ¸ä¼¼": 2483,
      "æĹ¶å°ļ": 2484,
      "æ±ī": 2485,
      "æĹ¥æľŁ": 2486,
      "ç£": 2487,
      "å·§åħĭ": 2488,
      "éģĵå¾·": 2489,
      "å¡ĳæĸĻ": 2490,
      "èĭ±è¯Ń": 2491,
      "çļĦå¤§": 2492,
      "çļĦè¯Ŀ": 2493,
      "çļĦçĥ": 2494,
      "ç½ĳç«Ļ": 2495,
      "æ±¤": 2496,
      "æ£Ĵ": 2497,
      "å·¦": 2498,
      "ä¼ĺåĮĸ": 2499,
      "100": 2500,
      "çļĦæ°Ķ": 2501,
      "çļĦæ®µèĲ½": 2502,
      "å¿«ä¹Ĳ": 2503,
      "çļĦç¤¾": 2504,
      "ç»ĨèĬĤ": 2505,
      "æĵį": 2506,
      "ä¾ĭåŃĲ": 2507,
      "å¹¶åľ¨": 2508,
      "éĨĴ": 2509,
      "æ¸¸æ³³": 2510,
      "å®Ī": 2511,
      "ç»¿èī²": 2512,
      "çĦ¦èĻĳ": 2513,
      "æļ´": 2514,
      "èį¯çī©": 2515,
      "å®ĥä»¬çļĦ": 2516,
      "åĪĨç±»ä¸º": 2517,
      "éļľ": 2518,
      "çĻ»": 2519,
      "è´£ä»»": 2520,
      "è¢ĭ": 2521,
      "æľĿ": 2522,
      "æĺ¯çļĦ": 2523,
      "æıĲåĩº": 2524,
      "åŃ£èĬĤ": 2525,
      "æł¹æį®ä»¥ä¸ĭ": 2526,
      "ä¿Ŀåģ¥": 2527,
      "æĹłè®º": 2528,
      "æ¶Īè´¹": 2529,
      "é¡¿": 2530,
      "ä»įçĦ¶": 2531,
      "çļĦæĹ¶åĢĻ": 2532,
      "ä¸Ģç¯ĩæĸĩç«ł": 2533,
      "æĬ¥åĳĬ": 2534,
      "æĶ¿çŃĸ": 2535,
      "å¹¿åĳĬ": 2536,
      "çļĦå¥½": 2537,
      "çģ¯": 2538,
      "ä»¥ä¸ĭæĺ¯ä¸Ģ": 2539,
      "å¹³åı°": 2540,
      "åĲĪçĲĨ": 2541,
      "åı³": 2542,
      "çļĦéĩįè¦ģæĢ§": 2543,
      "ç»ŃåĨĻ": 2544,
      "çļĦé£Łçī©": 2545,
      "å¤ļæł·": 2546,
      "æ¨¡å¼ı": 2547,
      "å°ģ": 2548,
      "äººå·¥æĻºèĥ½çļĦ": 2549,
      "å·§åħĭåĬĽ": 2550,
      "ç¥ŀç§ĺ": 2551,
      "åĹ": 2552,
      "ŁéĢļ": 2553,
      "è¡Ĺ": 2554,
      "å¢ŀéķ¿": 2555,
      "åľ¨å®¶": 2556,
      "..": 2557,
      "çĬ¯": 2558,
      "ç®±": 2559,
      "æµĵ": 2560,
      "åıįåºĶ": 2561,
      "ä¸įè¿ĩ": 2562,
      "çĹĽ": 2563,
      "ä¸Ģæł·": 2564,
      "åľĨ": 2565,
      "å°ıæĺİæľī": 2566,
      "èĢĲ": 2567,
      "å¹¸ç¦ı": 2568,
      "æĮ¥": 2569,
      "æĬĺ": 2570,
      "å¸¦æĿ¥äºĨ": 2571,
      "æĭ¼": 2572,
      "åĺ": 2573,
      "åĮĸçļĦ": 2574,
      "ç¬¦åĲĪ": 2575,
      "èĦĤ": 2576,
      "æĶ¹è¿Ľ": 2577,
      "çĳľä¼½": 2578,
      "å¡Ķ": 2579,
      "æĲľç´¢": 2580,
      "çĬ¶æĢģ": 2581,
      "åĨ²": 2582,
      "åı£åĳ³": 2583,
      "åĪ¶éĢł": 2584,
      "çļĦæµ·": 2585,
      "çĶµèĦĳ": 2586,
      "å¿ħè¦ģ": 2587,
      "ç¼ĵè§£": 2588,
      "50": 2589,
      "ä¹İ": 2590,
      "æķĳ": 2591,
      "æĦŁåıĹ": 2592,
      "æĬĹ": 2593,
      "çº½çº¦": 2594,
      "çī©çĲĨ": 2595,
      "Ġ=": 2596,
      "è£¤": 2597,
      "çº¸": 2598,
      "æĺİç¡®": 2599,
      "äººåĲį": 2600,
      "è¯įè¯Ń": 2601,
      "çļĦæĳĺè¦ģ": 2602,
      "åħ¶æ¬¡": 2603,
      "ä¸Ĭåįĩ": 2604,
      "èĦļ": 2605,
      "é¼ĵåĬ±": 2606,
      "æŃ£ç¡®çļĦ": 2607,
      "ç«ŀäºī": 2608,
      "ç«¥": 2609,
      "åį³åı¯": 2610,
      "æĢ»æĺ¯": 2611,
      "éĹ²": 2612,
      "çļĦä¸»": 2613,
      "åľ°æĸ¹": 2614,
      "åĬ¨ä½ľ": 2615,
      "æĥħç»ª": 2616,
      "æł¸": 2617,
      "å·¥ç¨ĭ": 2618,
      "åĪĨç»Ļ": 2619,
      "ç±į": 2620,
      "æıĲä¾Ľä¸Ģä¸ª": 2621,
      "æ½®": 2622,
      "éĢĲæ¸Ĳ": 2623,
      "çİ°è±¡": 2624,
      "åıĹæ¬¢è¿İ": 2625,
      "åĽ½éĻħ": 2626,
      "è¿½æ±Ĥ": 2627,
      "éĻĲåĪ¶": 2628,
      "é»İ": 2629,
      "å®¶å±ħ": 2630,
      "æŁĲäºĽ": 2631,
      "ä¹ĭåīį": 2632,
      "åĩıè½»": 2633,
      "è¾Ĩ": 2634,
      "æ¬£": 2635,
      "è´¡": 2636,
      "æ°¸": 2637,
      "ä¸ĸçºª": 2638,
      "çħ®": 2639,
      "æµĭè¯ķ": 2640,
      "çĽĲ": 2641,
      "åĳ³éģĵ": 2642,
      "è·Ŀç¦»": 2643,
      "æĻ¯çĤ¹": 2644,
      "æıĲåįĩ": 2645,
      "ä¸Ģåı¥è¯Ŀ": 2646,
      "èĿ": 2647,
      "18": 2648,
      "å¤ªç©º": 2649,
      "èĤ¤": 2650,
      "åºĶçĶ¨äºİ": 2651,
      "ä¸Ŀ": 2652,
      "çĶŁæĢģç³»ç»Ł": 2653,
      "æĲŃéħį": 2654,
      "è°·": 2655,
      "ä¸ĸçķĮä¸ĬæľĢ": 2656,
      "±ä¹Ĳ": 2657,
      "çĤº": 2658,
      "åħ¬åħ±": 2659,
      "æİ¨åĬ¨": 2660,
      "ä¸ĭæĸĩ": 2661,
      "è®©ä½ł": 2662,
      "ä»¿": 2663,
      "éĶħ": 2664,
      "å®ŀéªĮ": 2665,
      "åº¦åĴĮ": 2666,
      "éĸ": 2667,
      "åĵªä¸ª": 2668,
      "ç»¼": 2669,
      "ç¥Ŀ": 2670,
      "æĻļä¸Ĭ": 2671,
      "ä¸Ģå®¶": 2672,
      "ä¸ªæĢ§": 2673,
      "ä½¿åħ¶æĽ´åĬł": 2674,
      "çº¢èī²": 2675,
      "ç©ºéĹ´": 2676,
      "å¼łä¸ī": 2677,
      "çĶ¨æĿ¥": 2678,
      "è§£åĨ³æĸ¹æ¡Ī": 2679,
      "åĢĳ": 2680,
      "æ±ł": 2681,
      "æ©ĻåŃĲ": 2682,
      "å¤ıåŃ£": 2683,
      "æĪĲéķ¿": 2684,
      "çļĦåĨħå®¹": 2685,
      "å¸ģ": 2686,
      "æĦıæĢĿ": 2687,
      "æĿĳ": 2688,
      "è´¡çĮ®": 2689,
      "æĺ¯çĶ±": 2690,
      "éĵħ": 2691,
      "æ¹ĸ": 2692,
      "çļĦæ³": 2693,
      "çĽĺ": 2694,
      "å±ķç¤º": 2695,
      "çīĽå¥¶": 2696,
      "ä¹ĺ": 2697,
      "è¯Ħä¼°": 2698,
      "èµŀ": 2699,
      "åĲ«ä¹ī": 2700,
      "ä¸¤ä¸ªåı¥åŃĲ": 2701,
      "æ°Ķä½ĵ": 2702,
      "å¿Ļ": 2703,
      "è²": 2704,
      "æľºæŀĦ": 2705,
      "æŃ§": 2706,
      "æĹ©ä¸Ĭ": 2707,
      "__": 2708,
      "æľªæĿ¥çļĦ": 2709,
      "åİŁå§ĭ": 2710,
      "åĬ³": 2711,
      "å¥³æĢ§": 2712,
      "çĬ¶åĨµ": 2713,
      "å®«": 2714,
      "å®Įåħ¨": 2715,
      "æ±ģ": 2716,
      "åĴĮåħ¶ä»ĸ": 2717,
      "çļĦåİĨåı²": 2718,
      "æī©": 2719,
      "ãĢĤâĢĿ<|": 2720,
      "ä¸ĢèĪ¬": 2721,
      "åİļ": 2722,
      "ç»Ļåĩºä¸Ģä¸ª": 2723,
      "è°ĥæŁ¥": 2724,
      "åľ¨çº¿": 2725,
      "èİ·åıĸ": 2726,
      "æķ£æŃ¥": 2727,
      "å¥ĭ": 2728,
      "å°Ĭéĩį": 2729,
      "æĿ¥èĩª": 2730,
      "çĶŁæ´»ä¸Ń": 2731,
      "æĪ·å¤ĸ": 2732,
      "åĤ¨": 2733,
      "è®°å½ķ": 2734,
      "è¿Ļå®¶": 2735,
      "ç¯®": 2736,
      "çĽ¸ä¿¡": 2737,
      "åĮ»çĸĹä¿Ŀåģ¥": 2738,
      "åĲ¯": 2739,
      "ä¸ľè¥¿": 2740,
      "æ»ĳ": 2741,
      "çĽ´æİ¥": 2742,
      "æĪĲæľ¬": 2743,
      "ä¹Łä¼ļ": 2744,
      "åĪĹè¡¨": 2745,
      "åı¯èĥ½æĺ¯": 2746,
      "æĬĢæľ¯çļĦ": 2747,
      "æĦıåĳ³": 2748,
      "æĺł": 2749,
      "å°į": 2750,
      "åħŃ": 2751,
      "è¾¾åĪ°": 2752,
      "çļĦæĢĿ": 2753,
      "åĽŀçŃĶéĹ®é¢ĺ": 2754,
      "ç½ª": 2755,
      "å¥¹çļĦ": 2756,
      "ä¸įçŁ¥éģĵ": 2757,
      "çłĶ": 2758,
      "è®ºæĸĩ": 2759,
      "å¾Ħ": 2760,
      "åºĶçĶ¨ç¨ĭåºı": 2761,
      "æĦıå¤§åĪ©": 2762,
      "ä¸Ĭæµ·": 2763,
      "æĪĳè®¤ä¸º": 2764,
      "å¦Ī": 2765,
      "éĵħç¬Ķ": 2766,
      "åĨł": 2767,
      "éĤ£éĩĮ": 2768,
      "æĸ¹ä¾¿": 2769,
      "çİī": 2770,
      "åĪĨåĪ«": 2771,
      "æĪĳå¾Ī": 2772,
      "è¡¨è¾¾äºĨ": 2773,
      "ç¼©": 2774,
      "éĢĻ": 2775,
      "çĥ§": 2776,
      "åŃ¦ä¹łåĴĮ": 2777,
      "ç»Ļä½ł": 2778,
      "æĿ°": 2779,
      "æŃ¥éª¤": 2780,
      "æįŁ": 2781,
      "èĳĹåĲįçļĦ": 2782,
      "å·´é»İ": 2783,
      "æ·±åĪ»": 2784,
      "æĢ¥": 2785,
      "éģį": 2786,
      "ç¨³å®ļ": 2787,
      "æ´¾": 2788,
      "éº¦": 2789,
      "èĽĭçĻ½": 2790,
      "è¶³çĲĥ": 2791,
      "åĽº": 2792,
      "èĩ³å°ĳ": 2793,
      "éĩıåŃĲ": 2794,
      "ä¸Ģå¤©": 2795,
      "åĩī": 2796,
      "æĶ¹åĨĻ": 2797,
      "æŀ¶": 2798,
      "åı¯ä»¥ä½¿çĶ¨": 2799,
      "è¿Ļç¯ĩ": 2800,
      "æĸĹ": 2801,
      "çĩĥ": 2802,
      "æĸ°éĹ»æĬ¥éģĵ": 2803,
      "æĦıåĳ³çĿĢ": 2804,
      "æĽ¿æį¢": 2805,
      "åĳĪ": 2806,
      "çİ¯å¢ĥä¿ĿæĬ¤": 2807,
      "é¥¼": 2808,
      "åĪº": 2809,
      "å®½": 2810,
      "çĤĴ": 2811,
      "åıĳå¸ĥ": 2812,
      "åĮĸåŃ¦": 2813,
      "éĻĦ": 2814,
      "æŃī": 2815,
      "è¡¨éĿ¢": 2816,
      "ä½Ľ": 2817,
      "åĿļæĮģ": 2818,
      "å½ĵåīį": 2819,
      "åı¥åŃĲä¸Ń": 2820,
      "å¤©ç©º": 2821,
      "ç±»ä¼¼": 2822,
      "äººçĶŁ": 2823,
      "çļĦäºĭæĥħ": 2824,
      "éľĩ": 2825,
      "åģ¥åº·çļĦ": 2826,
      "æ°Ķæ¸©": 2827,
      "ä¸Ģç»Ħ": 2828,
      "çļĦä¸Ģä¸ª": 2829,
      "æģ¶": 2830,
      "æĿŁ": 2831,
      "å¹¶ä¸į": 2832,
      "èĩªè¡Į": 2833,
      "æĶ»": 2834,
      "ä»¥ç¡®ä¿Ŀ": 2835,
      "åºŁ": 2836,
      "åĶ±": 2837,
      "éĽħ": 2838,
      "ç»©": 2839,
      "on": 2840,
      "å¯Ĵ": 2841,
      "æĤ¦": 2842,
      "ä¿Ŀè¯ģ": 2843,
      "çŃ¾": 2844,
      "çļĦæ´»": 2845,
      "è®¢": 2846,
      "æ¯ıä¸ªæľĭåıĭ": 2847,
      "åĪĨåĪ°": 2848,
      "å°¤": 2849,
      "çĽ¸åħ³çļĦ": 2850,
      "å¹ħ": 2851,
      "æİ¨å¹¿": 2852,
      "çļĦç³": 2853,
      "æ¶¦": 2854,
      "è¡£æľį": 2855,
      "åºĵ": 2856,
      "çīĻ": 2857,
      "ç»ĺ": 2858,
      "éľĢè¦ģæ³¨æĦı": 2859,
      "¡èĲ": 2860,
      "çľŁæŃ£": 2861,
      "åĬ¨è¯į": 2862,
      "æī§è¡Į": 2863,
      "ä¼ĺåĬ¿": 2864,
      "æİī": 2865,
      "æģĲ": 2866,
      "æĢĿæĥ³": 2867,
      "åı¯ä»¥è¢«": 2868,
      "èĥ½éĩı": 2869,
      "èĤĮ": 2870,
      "èĭ¦": 2871,
      "çĽĽ": 2872,
      "æİ¥åıĹ": 2873,
      "ç§ĳå¹»": 2874,
      "å®ļä¹ī": 2875,
      "æ¤Ĵ": 2876,
      "çļĦæĸ°": 2877,
      "æ¨¡æĭŁ": 2878,
      "çıį": 2879,
      "ä¸Ģä¸ªäºº": 2880,
      "åı¯æĮģç»Ńåıĳå±ķ": 2881,
      "å¾ª": 2882,
      "éªĳ": 2883,
      "å®īæİĴ": 2884,
      "èĢĮä¸įæĺ¯": 2885,
      "å¼ĥ": 2886,
      "ç»ĵåĲĪ": 2887,
      "çļĦæĻº": 2888,
      "çļĦçĭ": 2889,
      "æ£®æŀĹ": 2890,
      "æĺİäºĨ": 2891,
      "åıĳæĮ¥": 2892,
      "åĴĮæĸĩåĮĸ": 2893,
      "è½»æĿ¾": 2894,
      "çļĦçĪ±": 2895,
      "ä½łéľĢè¦ģ": 2896,
      "ä¸»ä¹ī": 2897,
      "ä¸ĭåĪĹ": 2898,
      "ä½łå¥½": 2899,
      "åĩºèī²": 2900,
      "çļĦæıı": 2901,
      "è¯·åĳĬè¯īæĪĳ": 2902,
      "çĽ¸äºĴ": 2903,
      "çļĦæĦıæĢĿ": 2904,
      "ä¸ŃæľĢ": 2905,
      "çĿ¡çľł": 2906,
      "å®¶äºº": 2907,
      "æıĲä¾Ľä¸ĢäºĽ": 2908,
      "èĤ¥": 2909,
      "åħ±æľī": 2910,
      "ä¼ĺç§Ģ": 2911,
      "äºĨä¸ĢäºĽ": 2912,
      "å®ļæľŁ": 2913,
      "èĭı": 2914,
      "å©ļ": 2915,
      "åĪĹåĩº": 2916,
      "äººç±»çļĦ": 2917,
      "è©": 2918,
      "åľ¨ä¸Ģèµ·": 2919,
      "è·µ": 2920,
      "ç»Ļå®ļä¸Ģä¸ª": 2921,
      "å¨±ä¹Ĳ": 2922,
      "å°¾": 2923,
      "æĵįä½ľ": 2924,
      "çļĦçģ": 2925,
      "è§Ĥä¼Ĺ": 2926,
      "æ³¨éĩį": 2927,
      "çĥŁ": 2928,
      "é«ĺåħ´": 2929,
      "æµģè¡Į": 2930,
      "çĽ®çļĦåľ°": 2931,
      "æĺ¯ä¸Ģéĥ¨": 2932,
      "çµ": 2933,
      "å¤§å®¶": 2934,
      "çĶŁåŃĺ": 2935,
      "ä¹Łæľī": 2936,
      "èĽĭç³ķ": 2937,
      "æīĢæľīçļĦ": 2938,
      "ç¿°": 2939,
      "çĽ¸å¯¹": 2940,
      "æ¹¿": 2941,
      "æĪĳåľ¨": 2942,
      "èī¯å¥½çļĦ": 2943,
      "çļĦæ¦Ĥ": 2944,
      "åĨĻä¸Ģç¯ĩ": 2945,
      "éĿ¢å¯¹": 2946,
      "ä¹¦ç±į": 2947,
      "é¥®æĸĻ": 2948,
      "èĥģ": 2949,
      "éĢ»": 2950,
      "æĹ¶ä»£": 2951,
      "æĢ»ä¹ĭ": 2952,
      "åĿ¦": 2953,
      "å®ľ": 2954,
      "ç»ĵè®º": 2955,
      "åĮ»çĸĹé¢ĨåŁŁ": 2956,
      "è·ĳæŃ¥": 2957,
      "è®¿": 2958,
      "èĪ¹": 2959,
      "é¾Ħ": 2960,
      "ç¨ĭåº¦": 2961,
      "ä¾Ĩ": 2962,
      "åı¤è¯Ĺ": 2963,
      "éĢĤéĩı": 2964,
      "æľµ": 2965,
      "çľŁçļĦ": 2966,
      "åıªæĺ¯": 2967,
      "è¯ļ": 2968,
      "åŃ¤çĭ¬": 2969,
      "é¢Ħéĺ²": 2970,
      "çļĦæĢ»": 2971,
      "åħ¶ä¸ŃçļĦ": 2972,
      "æİ¨çĲĨ": 2973,
      "æİĮæı¡": 2974,
      "æĬ½åıĸ": 2975,
      "éĤ£äºĽ": 2976,
      "çĶļ": 2977,
      "åĵº": 2978,
      "è¿Ľåħ¥": 2979,
      "å¨ģèĥģ": 2980,
      "æ³¡": 2981,
      "å¥ı": 2982,
      "å¯»æ±Ĥ": 2983,
      "ä¸ļåĬ¡": 2984,
      "è°±": 2985,
      "åĵ¥": 2986,
      "åīįå¾Ģ": 2987,
      "æľīåĵªäºĽ": 2988,
      "æ¼Ķåĳĺ": 2989,
      "æµģçķħ": 2990,
      "è¿Ľè¡ĮåĪĨç±»": 2991,
      "202": 2992,
      "æĮĩåĩº": 2993,
      "è§ĦåĪĴ": 2994,
      "å®ŀè·µ": 2995,
      "çĭ¬çī¹çļĦ": 2996,
      "åĳ¨åĽ´": 2997,
      "æĪĲè¯Ń": 2998,
      "å¹´çļĦ": 2999,
      "æĸĩæľ¬åĨħå®¹": 3000,
      "è¾£": 3001,
      "ç»ıè¿ĩ": 3002,
      "æ¸©æļĸ": 3003,
      "ä½ĵèĤ²": 3004,
      "çıł": 3005,
      "éĩįçĤ¹": 3006,
      "æŃ§è§Ĩ": 3007,
      "çİĽä¸½": 3008,
      "å£°éŁ³": 3009,
      "æ¦Ĥå¿µ": 3010,
      "æ°§åĮĸ": 3011,
      "ä»ĸåľ¨": 3012,
      "éĽ¶": 3013,
      "ä¸Ńæĸĩ": 3014,
      "åŃ¸": 3015,
      "å¼ĢæĶ¾": 3016,
      "åįģåĪĨ": 3017,
      "å¾Ĺåĩº": 3018,
      "éĢ»è¾ĳ": 3019,
      "ç²¾ç¥ŀ": 3020,
      "èķī": 3021,
      "æĹ¨åľ¨": 3022,
      "æ¶²": 3023,
      "åĵªéĩĮ": 3024,
      "çļĦçŁŃ": 3025,
      "çº¦ç¿°": 3026,
      "æ³°": 3027,
      "çī©ä½ĵ": 3028,
      "çĹħæ¯Ĵ": 3029,
      "é¸¡èĽĭ": 3030,
      "è¿ŀæİ¥": 3031,
      "å¦Ļ": 3032,
      "å¤ªéĺ³ç³»": 3033,
      "èĩªåĬ¨åĮĸ": 3034,
      "è§ĦåĪĻ": 3035,
      "ä½¿åħ¶æĽ´": 3036,
      "æľĢä½³": 3037,
      "èĻļæĭŁ": 3038,
      "éĥ½ä¼ļ": 3039,
      "çļĦæĥ³": 3040,
      "éķ¿åº¦": 3041,
      "æĢĢ": 3042,
      "ä¸Ģæ¬¾": 3043,
      "èĩªåĬ¨é©¾é©¶": 3044,
      "çļĦæĻ¯": 3045,
      "æıĲåıĸåĩº": 3046,
      "è´Ŀ": 3047,
      "èº«ä½ĵåģ¥åº·": 3048,
      "è½®": 3049,
      "ä¸ĬéĿ¢": 3050,
      "çĲĨè®º": 3051,
      "æķ¬": 3052,
      "èľľ": 3053,
      "åĩĢ": 3054,
      "éģµ": 3055,
      "åĢ¾": 3056,
      "èĵĿèī²": 3057,
      "å´": 3058,
      "é¦Ļèķī": 3059,
      "åľ¨ä¸Ģä¸ª": 3060,
      "çļĦé£İéĻ©": 3061,
      "ä¹¡": 3062,
      "äº¡": 3063,
      "200": 3064,
      "æµ·æ»©": 3065,
      "æĸ°é²ľ": 3066,
      "åħ³éĶ®ä¿¡æģ¯": 3067,
      "æĪĳéľĢè¦ģ": 3068,
      "åĲĦä¸ª": 3069,
      "æĪĲä¸ºäºĨ": 3070,
      "èĭ±åĽ½": 3071,
      "æľīæīĢ": 3072,
      "è¡¥": 3073,
      "ç¾İå¥½çļĦ": 3074,
      "èĦ±": 3075,
      "æ··åĲĪ": 3076,
      "åĵºä¹³": 3077,
      "ä¼ĺçĤ¹": 3078,
      "çĤİ": 3079,
      "åĪĨä¸º": 3080,
      "ï¼īï¼Į": 3081,
      "æĺ¾ç¤º": 3082,
      "è¿Ļæ¬¾": 3083,
      "å¥³åŃ©": 3084,
      "èĤ¯": 3085,
      "åĨĻä¸Ģä¸ª": 3086,
      "å°Ĩä»¥ä¸ĭ": 3087,
      "æĬ±æŃī": 3088,
      "çĶ³": 3089,
      "å·¥ä¸ļ": 3090,
      "ä¸»äºº": 3091,
      "ç§¯æŀģçļĦ": 3092,
      "è´¥": 3093,
      "çŁŃæĸĩ": 3094,
      "éĹŃ": 3095,
      "éº¼": 3096,
      "æĺ¯ä¸ŃåĽ½": 3097,
      "åį·": 3098,
      "èªī": 3099,
      "é«ĺåº¦": 3100,
      "çļĦæ´»åĬ¨": 3101,
      "å°ıåŃ¦": 3102,
      "çĬ¬": 3103,
      "æ²ŁéĢļ": 3104,
      "æĸĩåĮĸåĴĮ": 3105,
      "æĩĤ": 3106,
      "ãĢĭãĢģ": 3107,
      "ç¾İä¸½çļĦ": 3108,
      "æ¡Į": 3109,
      "è¿¹": 3110,
      "è¯·ç»ĻæĪĳ": 3111,
      "èĩªè¡Įè½¦": 3112,
      "æĺ¯ä¸Ģä½į": 3113,
      "åħ«": 3114,
      "æł¹æį®æıĲä¾Ľ": 3115,
      "åľ£": 3116,
      "æ¾": 3117,
      "XX": 3118,
      "éĿ¢åĮħ": 3119,
      "å«": 3120,
      "ç®Ģè¦ģ": 3121,
      "ĠâĢľ": 3122,
      "è¯ŃéŁ³è¯ĨåĪ«": 3123,
      "éĥģ": 3124,
      "çļĦæııè¿°": 3125,
      "éķĩ": 3126,
      "ç¥ŀç»ıç½ĳç»ľ": 3127,
      "çļĦæīĭ": 3128,
      "æĭį": 3129,
      "éĻĪè¿°": 3130,
      "ï¼īãĢĤ": 3131,
      "ä¹ĭåĲİ": 3132,
      "æłĩåĩĨ": 3133,
      "å¹³çŃī": 3134,
      "æĹ¶æľŁ": 3135,
      "çļĦçŃĶæ¡Ī": 3136,
      "èİĵ": 3137,
      "ä¹ı": 3138,
      "è§¦": 3139,
      "åįļçī©": 3140,
      "èĭĹ": 3141,
      "åģ¥åº·é¥®é£Ł": 3142,
      "å»¶": 3143,
      "éŃĶæ³ķ": 3144,
      "åºĨ": 3145,
      "ĠĠ": 3146,
      "æĹ¶éĹ´åĴĮ": 3147,
      "ç¤¾åĮº": 3148,
      "çļĦæĭ": 3149,
      "æŁĲä¸ª": 3150,
      "ç¬¬ä¸Ģ": 3151,
      "å±ķçİ°": 3152,
      "åĳ¨æľ«": 3153,
      "æķ°æį®éĽĨ": 3154,
      "ä»£çłģ": 3155,
      "è½¬æį¢": 3156,
      "è¯¾ç¨ĭ": 3157,
      "èĢ³": 3158,
      "æī¾åĩº": 3159,
      "å·¦åı³": 3160,
      "éª¨": 3161,
      "é¢Ĩå¯¼": 3162,
      "å¾ĹåĪ°äºĨ": 3163,
      "åīĤ": 3164,
      "ç§°ä¸º": 3165,
      "è³": 3166,
      "åı¤ä»£": 3167,
      "ç®ĢåįķçļĦ": 3168,
      "åĬĽçļĦ": 3169,
      "çļĦæĢ§": 3170,
      "æľŁéĹ´": 3171,
      "å®Ĺ": 3172,
      "æ¬£èµı": 3173,
      "çļĦæİ¨": 3174,
      "åĨįçĶŁ": 3175,
      "æĸĩæľ¬ä¸ŃçļĦ": 3176,
      "åĨ¥": 3177,
      "åĪĨéħį": 3178,
      "ä¼ĳæģ¯": 3179,
      "æĶ¾åľ¨": 3180,
      "æĦŁåıĹåĪ°": 3181,
      "è¯Ńè¨Ģæ¨¡åŀĭ": 3182,
      "çļĦæķĪ": 3183,
      "çĴ": 3184,
      "çļĦæĮĳæĪĺ": 3185,
      "è®²è¿°äºĨ": 3186,
      "æĹ§": 3187,
      "äº¿": 3188,
      "æ¸ħæ´ģ": 3189,
      "åĮºåĿĹ": 3190,
      "æħ§": 3191,
      "åĵģè´¨": 3192,
      "å£®": 3193,
      "çĪ±å¥½": 3194,
      "çĶļèĩ³": 3195,
      "ä»Ģéº¼": 3196,
      "çģ¾å®³": 3197,
      "å®ĥåı¯ä»¥": 3198,
      "å®ģ": 3199,
      "è½½": 3200,
      "æĺŁæľŁ": 3201,
      "èĽĭçĻ½è´¨": 3202,
      "åĨĴéĻ©": 3203,
      "èĥ½åĲ¦": 3204,
      "ä¸ĥ": 3205,
      "ä¸ºæĪĳ": 3206,
      "ªæĺİ": 3207,
      "åłĤ": 3208,
      "ĠæĪĳ": 3209,
      "å¯¿": 3210,
      "è¡¨æ¼Ķ": 3211,
      "å½Ĵç±»": 3212,
      "åıĬæĹ¶": 3213,
      "æĪ¿éĹ´": 3214,
      "åĮĢ": 3215,
      "å¤§æ°Ķ": 3216,
      "è¿Ļæľ¬ä¹¦": 3217,
      "çĻĮ": 3218,
      "çĭ¬ç«ĭ": 3219,
      "æĹĭ": 3220,
      "ãĢĭãĢģãĢĬ": 3221,
      "çļĦåİŁåĽł": 3222,
      "å°¤åħ¶": 3223,
      "é¼ł": 3224,
      "âĢĶâĢĶ": 3225,
      "çĶŁæ´»æĸ¹å¼ı": 3226,
      "ç§įæĹı": 3227,
      "æĢĿç»´": 3228,
      "æĿĢ": 3229,
      "æĥħåĨµä¸ĭ": 3230,
      "çľĭçĶµå½±": 3231,
      "èĤª": 3232,
      "èĦĤèĤª": 3233,
      "èĮĦ": 3234,
      "é»ĺ": 3235,
      "åħ·ä½ĵçļĦ": 3236,
      "å¼ºè°ĥäºĨ": 3237,
      "çĽ¸åºĶ": 3238,
      "æ®Ĭ": 3239,
      "«èĲ¨": 3240,
      "é¢Ĺç³ĸæŀľ": 3241,
      "åĵºä¹³åĬ¨çī©": 3242,
      "éĻ¤äºĨ": 3243,
      "æľĢå¥½çļĦ": 3244,
      "å®ĥæĺ¯": 3245,
      "å®¾": 3246,
      "å¹¶æıĲä¾Ľ": 3247,
      "æķı": 3248,
      "å½¢å®¹è¯į": 3249,
      "è¿ª": 3250,
      "è®¤è¯Ĩ": 3251,
      "è¯º": 3252,
      "é»ĳæ´ŀ": 3253,
      "å®¤æ°Ķä½ĵ": 3254,
      "çĶŁæĪĲåķĨåĵģ": 3255,
      "æ¦": 3256,
      "åľ¨æľªæĿ¥": 3257,
      "äºĭçī©": 3258,
      "æĭĮ": 3259,
      "çļĦèĥ½åĬĽ": 3260,
      "èĳ±": 3261,
      "èļ": 3262,
      "ç§įç±»": 3263,
      "æĺĵäºİ": 3264,
      "åĢŁ": 3265,
      "å¼ºçĥĪ": 3266,
      "ä¼ĳéĹ²": 3267,
      "äºĴåĬ¨": 3268,
      "æ¶Īè´¹èĢħ": 3269,
      "å½¼": 3270,
      "æ»¡æĦı": 3271,
      "äºĨä¸Ģç§į": 3272,
      "æľĢæĸ°": 3273,
      "å¼¹": 3274,
      "çļĦç©": 3275,
      "èĦı": 3276,
      "éĢĢ": 3277,
      "æİ¢è®¨äºĨ": 3278,
      "ä¹Ŀ": 3279,
      "è°ĵ": 3280,
      "çļĦä¸»è¦ģè§ĤçĤ¹": 3281,
      "è¹": 3282,
      "æľīè¶£çļĦ": 3283,
      "æ¼Ĥ": 3284,
      "äº¤æĺĵ": 3285,
      "æľĢå¥½": 3286,
      "æĹ¢": 3287,
      "å¸Ŀ": 3288,
      "åįļçī©é¦Ĩ": 3289,
      "æ¶Īæŀģ": 3290,
      "æľĥ": 3291,
      "åĴ¨": 3292,
      "å·Ŀ": 3293,
      "è¿ĺéľĢè¦ģ": 3294,
      "æ¯ıä¸ªäººéĥ½": 3295,
      "èĢĹ": 3296,
      "å¹´é¾Ħ": 3297,
      "ç¶": 3298,
      "å®Įæķ´": 3299,
      "çĸ«æĥħ": 3300,
      "æİ¥ä¸ĭæĿ¥": 3301,
      "éĢĴ": 3302,
      "Ġæııè¿°": 3303,
      "è´ŁéĿ¢å½±åĵį": 3304,
      "å¤ļçļĦ": 3305,
      "çļĦç³ĸ": 3306,
      "è¾ħ": 3307,
      "è¿ħ": 3308,
      "å®£ä¼ł": 3309,
      "çĶŁéķ¿": 3310,
      "è§Ĩé¢ĳ": 3311,
      "è®¨è®ºäºĨ": 3312,
      "é¡¶": 3313,
      "çĪ¶": 3314,
      "æĪĳæĹłæ³ķ": 3315,
      "èº«å¿ĥ": 3316,
      "çªĹ": 3317,
      "ä¹Łå¾Ī": 3318,
      "çļĦç¬¬": 3319,
      "æĢ§èĥ½": 3320,
      "æ³ķåĽ½": 3321,
      "çľĭèµ·æĿ¥": 3322,
      "åħħåĪĨ": 3323,
      "çĵľ": 3324,
      "èģĬå¤©": 3325,
      "è¯Ńæ³ķéĶĻè¯¯": 3326,
      "åĴ¨è¯¢": 3327,
      "ç»ķ": 3328,
      "æķ¢": 3329,
      "è§Ī": 3330,
      "ç¿»è¯ĳæĪĲ": 3331,
      "æĺŁçĲĥ": 3332,
      "äºĨè®¸å¤ļ": 3333,
      "çļĦéŁ³ä¹Ĳ": 3334,
      "éķ¿æľŁ": 3335,
      "ä½łä»¬": 3336,
      "çļĦçİ¯å¢ĥ": 3337,
      "ä¸Ĭä¸ĭæĸĩ": 3338,
      "åĲ¬èµ·æĿ¥": 3339,
      "ä¸Ģæľ¬": 3340,
      "èģªæĺİ": 3341,
      "æĢ»ç»Ł": 3342,
      "æĥł": 3343,
      "çĶŁæĹ¥": 3344,
      "éĺ¶": 3345,
      "å¿ĥæĥħ": 3346,
      "çļĦçĹ": 3347,
      "åĵ²": 3348,
      "è§Ĥå¯Ł": 3349,
      "çļĦç²": 3350,
      "èī²å½©": 3351,
      "çķª": 3352,
      "éº»": 3353,
      "åıĺå¾ĹæĽ´åĬł": 3354,
      "é½": 3355,
      "çļĦæīĢ": 3356,
      "èį£": 3357,
      "ï¼ŁâĢĿ": 3358,
      "å¹´æĿ¥": 3359,
      "ä¼łæĴŃ": 3360,
      "è§£åĨ³éĹ®é¢ĺ": 3361,
      "åĮºåĿĹéĵ¾": 3362,
      "æİ¨åĩº": 3363,
      "çļĦæ¯Ķ": 3364,
      "çļĦçŁ¥": 3365,
      "æĺİæĺ¾": 3366,
      "ç§»åĬ¨": 3367,
      "çļĦæķ°éĩı": 3368,
      "éĻĨ": 3369,
      "éĿŀå¸¸å¥½": 3370,
      "ç»´æĬ¤": 3371,
      "çľĭçľĭ": 3372,
      "é¢ĦæĬ¥": 3373,
      "åĳĪçİ°": 3374,
      "èī¾": 3375,
      "çļĦç¥": 3376,
      "å¹¶æ²¡æľī": 3377,
      "çº¯": 3378,
      "ä½ĨæĪĳ": 3379,
      "å¯¹çİ¯å¢ĥ": 3380,
      "éķľ": 3381,
      "å·¨å¤§": 3382,
      "çĶ²": 3383,
      "æĻºèĥ½å®¶å±ħ": 3384,
      "å®¡": 3385,
      "çĸ²": 3386,
      "çĺ": 3387,
      "çĽ´åĪ°": 3388,
      "åį±éĻ©": 3389,
      "æĳĦåħ¥": 3390,
      "éĽ·": 3391,
      "ï¼ļãĢĬ": 3392,
      "çªģçĦ¶": 3393,
      "çļĦè¡Įä¸º": 3394,
      "åĲĮä¹īè¯į": 3395,
      "èī¯å¥½": 3396,
      "æĭ¼åĨĻ": 3397,
      "çļĦæ±": 3398,
      "è¸ª": 3399,
      "è¿ĩåº¦": 3400,
      "ç¾İåħĥ": 3401,
      "åĴĮç¤¾ä¼ļ": 3402,
      "åĮºåŁŁ": 3403,
      "å¡«": 3404,
      "ç¡¬": 3405,
      "çļĦéĢīæĭ©": 3406,
      "è§Ħå¾ĭ": 3407,
      "æĤ¨éľĢè¦ģ": 3408,
      "èĻ«": 3409,
      "éĵ¶è¡Į": 3410,
      "æŃ¦": 3411,
      "åĨ¥æĥ³": 3412,
      "çī¹æ®Ĭ": 3413,
      "å±ĭ": 3414,
      "éĴ¢": 3415,
      "åĶĲ": 3416,
      "åĽŀå®¶": 3417,
      "çļĦçĥŃ": 3418,
      "æį·": 3419,
      "Ġ2": 3420,
      "âĢ¦": 3421,
      "æĶ¯ä»ĺ": 3422,
      "çĽ®çļĦ": 3423,
      "çļĦçĿ": 3424,
      "çļĦç¼": 3425,
      "éļıæĹ¶": 3426,
      "å°ıçĭĹ": 3427,
      "çĶ°": 3428,
      "åīįæĻ¯": 3429,
      "çĵ¶": 3430,
      "åı¯çĪ±": 3431,
      "èħ¿": 3432,
      "å»ºè®¾": 3433,
      "çĶŁæĪĲä¸Ģæ®µ": 3434,
      "äººæ°ĳ": 3435,
      "ä¸°å¯ĮçļĦ": 3436,
      "å¤§èĩªçĦ¶": 3437,
      "çĶ¨çļĦ": 3438,
      "åĽŀæĶ¶": 3439,
      "ä¸ĭåįĪ": 3440,
      "åı¹": 3441,
      "ä»ĸä»¬çļĦå¯¹è¯ĿåĨħå®¹": 3442,
      "å¹ķ": 3443,
      "çļĦæ¸©": 3444,
      "æł·çļĦ": 3445,
      "åĦ¿ç«¥": 3446,
      "æµ®": 3447,
      "æ·¡": 3448,
      "åĪĨæĪĲ": 3449,
      "éĩįå¤į": 3450,
      "åŃĲçļĦ": 3451,
      "éĹª": 3452,
      "èĦ¸": 3453,
      "åĪ°è¾¾": 3454,
      "æĭĽ": 3455,
      "åŁºåĽł": 3456,
      "å¦ĤæŃ¤": 3457,
      "åĪĽå»ºä¸Ģä¸ª": 3458,
      "æĪĳæľĢè¿ĳ": 3459,
      "ç¾İå¥½": 3460,
      "ä»İæĸĩç«łä¸ŃæıĲåıĸ": 3461,
      "æĦīå¿«": 3462,
      "æľīæ²¡æľī": 3463,
      "åĵģç§į": 3464,
      "æģ©": 3465,
      "æĶ¾åħ¥": 3466,
      "çļĦç¨": 3467,
      "çļĦæ¸¸": 3468,
      "æ´Ľ": 3469,
      "åı¯åĨįçĶŁ": 3470,
      "æľīè®¸å¤ļ": 3471,
      "çĶµåŃĲéĤ®ä»¶": 3472,
      "æĸ¼": 3473,
      "å¡ŀ": 3474,
      "ç¯®çĲĥ": 3475,
      "æ¶µ": 3476,
      "ä»İæĸĩç«łä¸ŃæıĲåıĸåĩº": 3477,
      "ç©¿çĿĢ": 3478,
      "è¿Ŀ": 3479,
      "æĪĳä»¬å°Ĩ": 3480,
      "åľ¨äºİ": 3481,
      "çī¹èī²": 3482,
      "æīĺ": 3483,
      "çļĦä¸Ģç§į": 3484,
      "ç§ĭå¤©": 3485,
      "èµ¢": 3486,
      "çļĦæĥ³æ³ķ": 3487,
      "è¢«è®¤ä¸º": 3488,
      "çļĦæ¼": 3489,
      "ĽåĽ´": 3490,
      "çĶŁç´ł": 3491,
      "æľĢå¤§": 3492,
      "ä¿ĿæĬ¤çİ¯å¢ĥ": 3493,
      "éŁ©": 3494,
      "èĥŀ": 3495,
      "è¿Ļé¡¹": 3496,
      "åĵģå°Ŀ": 3497,
      "çļĦæķĻ": 3498,
      "åł¡": 3499,
      "çļĦæīĢæľī": 3500,
      "çļĦçĿ¡": 3501,
      "é£ŁæĿĲ": 3502,
      "çļĦåŁİå¸Ĥ": 3503,
      "å¹³éĿ¢": 3504,
      "çļĦåįķè¯į": 3505,
      "äºĪ": 3506,
      "æķ°åŃ¦é¢ĺ": 3507,
      "éļ¾ä»¥": 3508,
      "éĤ£ä¸ª": 3509,
      "çī©ç§į": 3510,
      "æııè¿°äºĨ": 3511,
      "éģĩåĪ°": 3512,
      "åįł": 3513,
      "é£İæĻ¯": 3514,
      "æĪĲå°±": 3515,
      "æĻ´": 3516,
      "è®°å¿Ĩ": 3517,
      "æĪĲåĪĨ": 3518,
      "åı¯ä»¥è®©": 3519,
      "çļĦæŃĮ": 3520,
      "çļĦç½": 3521,
      "ä¸ĢæĿ¡": 3522,
      "åįĸ": 3523,
      "çĿĽ": 3524,
      "å°º": 3525,
      "è§Ħæ¨¡": 3526,
      "çļĦæĦŁè§ī": 3527,
      "æª": 3528,
      "åĲ«æľī": 3529,
      "æī¹": 3530,
      "çĶŁæĪĲåķĨåĵģæĸĩæ¡Ī": 3531,
      "å½Ĵç±»ä¸º": 3532,
      "è¿Ļé¦ĸ": 3533,
      "æĿ¥æºĲ": 3534,
      "çĪĨ": 3535,
      "å»ºè®®æĤ¨": 3536,
      "éĢĥ": 3537,
      "ä¸Ģé¡¹": 3538,
      "ä»Ķ": 3539,
      "è¿ĺåī©ä¸ĭ": 3540,
      "å°½åı¯èĥ½": 3541,
      "çļĦä½¿çĶ¨": 3542,
      "ä¸»è¯Ń": 3543,
      "çļĦæłĩé¢ĺ": 3544,
      "æĹ©é¤Ĳ": 3545,
      "é£ŀè¡Į": 3546,
      "çĹĩçĬ¶": 3547,
      "è¿Ľè¡ĮäºĨ": 3548,
      "çļĦè¿ĲåĬ¨": 3549,
      "çł´åĿı": 3550,
      "çļĦä¸»è¦ģåĨħå®¹": 3551,
      "ç¬¬ä¸ī": 3552,
      "åĨľä¸ļ": 3553,
      "æ·ĭ": 3554,
      "åŃ¦ä¼ļ": 3555,
      "å½¢è±¡": 3556,
      "çļĦçĿ¡çľł": 3557,
      "åĲī": 3558,
      "æľīæķĪåľ°": 3559,
      "ä¼Ĭ": 3560,
      "çļĦç¤¾ä¼ļ": 3561,
      "çļĦéľĢæ±Ĥ": 3562,
      "ç¬¦åı·": 3563,
      "ä»ĸäºº": 3564,
      "é¦Ī": 3565,
      "çŀ": 3566,
      "èĤº": 3567,
      "æŃĮæĽ²": 3568,
      "Ġ3": 3569,
      "åıĬåħ¶": 3570,
      "æľŁå¾ħ": 3571,
      "åį«çĶŁ": 3572,
      "ä¾¿åĪ©": 3573,
      "æīĢéľĢ": 3574,
      "ç»Ļå®ļçļĦæĸĩæľ¬": 3575,
      "èľĤ": 3576,
      "æĪ´": 3577,
      "èĭ¥": 3578,
      "äºĶä¸ª": 3579,
      "åī¯": 3580,
      "åħħæ»¡äºĨ": 3581,
      "é»Ħèī²": 3582,
      "åģĩè®¾": 3583,
      "åĴĮæĮĳæĪĺ": 3584,
      "åĬ©æīĭ": 3585,
      "æĦŁåħ´è¶£": 3586,
      "å¼±": 3587,
      "é£ŁçĶ¨": 3588,
      "GP": 3589,
      "åĬŀåħ¬": 3590,
      "æĢķ": 3591,
      "æ±¤å§Ĩ": 3592,
      "å¸¸è§ģçļĦ": 3593,
      "ç´¯": 3594,
      "è¿Ľå±ķ": 3595,
      "æĳĺ": 3596,
      "æĪĺäºī": 3597,
      "çļĦç©º": 3598,
      "è§Ħå®ļ": 3599,
      "åºĶè¯¥æĺ¯": 3600,
      "åİŁçĲĨ": 3601,
      "çľĭåĪ°äºĨ": 3602,
      "çļĦæĶ¯": 3603,
      "çĿ£": 3604,
      "Ġå°Ĩ": 3605,
      "çļĦæ·": 3606,
      "åĸľå¥½": 3607,
      "æ¡¥": 3608,
      "ç¾İçļĦ": 3609,
      "æ£Ģæµĭ": 3610,
      "éĿŀå¸¸éĩįè¦ģ": 3611,
      "çĻ¼": 3612,
      "é¡¾å®¢": 3613,
      "æĢ§åĪ«": 3614,
      "æ²Ļæ»©": 3615,
      "æĤ²": 3616,
      "åº¦è¿ĩ": 3617,
      "å°±ä¸ļ": 3618,
      "åĵ¦": 3619,
      "åıĺæĪĲ": 3620,
      "éĩĮæľī": 3621,
      "æģĴ": 3622,
      "çļĦçŁ¥è¯Ĩ": 3623,
      "éĩĮçļĦ": 3624,
      "èĸĦ": 3625,
      "ä¹ĭå¤ĸ": 3626,
      "çļĦæĻºèĥ½": 3627,
      "éĿ¢ç§¯": 3628,
      "åĲ¹": 3629,
      "ä¸ĵæ³¨": 3630,
      "çļĦå®īåħ¨": 3631,
      "è¯Ŀé¢ĺ": 3632,
      "ç¼ºä¹ı": 3633,
      "æĻĤ": 3634,
      "å²¸": 3635,
      "æ¸©å®¤æ°Ķä½ĵ": 3636,
      "åĨħå¿ĥ": 3637,
      "é¢Ħç®Ĺ": 3638,
      "éĽĦ": 3639,
      "ä»°": 3640,
      "ä¸ĢæĿ¯": 3641,
      "åŁĥ": 3642,
      "åı¯éĿł": 3643,
      "åı¯ä»¥æıĲé«ĺ": 3644,
      "æĹ¶åħī": 3645,
      "éĻĦè¿ĳ": 3646,
      "åĲ¬è¯´": 3647,
      "è£ħé¥°": 3648,
      "åĴĮæ²»çĸĹ": 3649,
      "æ¡£": 3650,
      "å·®å¼Ĥ": 3651,
      "é£ĺ": 3652,
      "è§£éĩĬä¸Ģä¸ĭ": 3653,
      "æ¸¯": 3654,
      "è®¡ç®Ĺæľºç§ĳåŃ¦": 3655,
      "çļĦæĮĩ": 3656,
      "æĦīæĤ¦": 3657,
      "èĬ±åĽŃ": 3658,
      "èĩªä¿¡": 3659,
      "çĸ«èĭĹ": 3660,
      "è®¾æĸ½": 3661,
      "å§ĵ": 3662,
      "å®ŀæĸ½": 3663,
      "æıĲéĨĴ": 3664,
      "æĺ¯æĪĳ": 3665,
      "åī§æĥħ": 3666,
      "æµªè´¹": 3667,
      "ç»ĦåĲĪ": 3668,
      "ãĢģâĢľ": 3669,
      "åĮĸåĴĮ": 3670,
      "æīĢåľ¨": 3671,
      "èİ«": 3672,
      "è´¢åĬ¡": 3673,
      "ä¸»è§Ĵ": 3674,
      "çĶµè¯Ŀ": 3675,
      "ä¸Ģéĥ¨": 3676,
      "ä¸ªæľĭåıĭ": 3677,
      "çļĦè¯Ńè¨Ģ": 3678,
      "åĿĩåĮĢ": 3679,
      "åĴĮä¸į": 3680,
      "in": 3681,
      "çĹħäºº": 3682,
      "çļĦåģ¥åº·": 3683,
      "æĺ¯ä¸ĢåĲį": 3684,
      "åľ¨è¿Ļ": 3685,
      "ä¸ŃæĢ§": 3686,
      "éģĩåĪ°äºĨ": 3687,
      "å¤§æķ°æį®": 3688,
      "åĪĨæŀĲåĴĮ": 3689,
      "èİ·å¾ĹäºĨ": 3690,
      "æł¹æį®ç»Ļå®ļçļĦæĸĩæľ¬": 3691,
      "åİ¨": 3692,
      "åıįé¦Ī": 3693,
      "éļĶ": 3694,
      "åĴĮä¸Ģä¸ª": 3695,
      "æıĲåĩºäºĨ": 3696,
      "éħĴåºĹ": 3697,
      "çĽĴ": 3698,
      "ç»Ĩèĥŀ": 3699,
      "æĪĲåĳĺ": 3700,
      "çĪ¬": 3701,
      "åĨįæ¬¡": 3702,
      "ä¸ĢäºĽåħ³äºİ": 3703,
      "å¿§": 3704,
      "çĨĬçĮ«": 3705,
      "æ°ı": 3706,
      "ä»¥ä¸ĭæĺ¯ä¸Ģéģĵ": 3707,
      "åħ¨éĿ¢": 3708,
      "çĪ½": 3709,
      "èĦī": 3710,
      "æĶ¶éĽĨ": 3711,
      "åĵ²åŃ¦": 3712,
      "å¸¸å¸¸": 3713,
      "ç¦ģ": 3714,
      "èįīèİĵ": 3715,
      "èµĸ": 3716,
      "er": 3717,
      "åı¯åĨįçĶŁèĥ½æºĲ": 3718,
      "æµªæ¼«": 3719,
      "èĳ¡èĲ": 3720,
      "èĳ¡èĲĦ": 3721,
      "ä¼Ł": 3722,
      "ä¸įå¤ª": 3723,
      "è§Ĵåº¦": 3724,
      "åŃĹæ¯į": 3725,
      "åħĶ": 3726,
      "çĲĨè§£åĴĮ": 3727,
      "çļĦé¢ľèī²": 3728,
      "çķªèĮĦ": 3729,
      "å¤ªéĺ³èĥ½": 3730,
      "å°ıåŃ¦æķ°åŃ¦é¢ĺ": 3731,
      "å¯¹äººç±»": 3732,
      "æĪĲç»©": 3733,
      "è¯·æıĲä¾Ľ": 3734,
      "ä»¥ä¸ĭæĺ¯ä¸Ģéģĵå°ıåŃ¦æķ°åŃ¦é¢ĺ": 3735,
      "ä¸Ĭè¿°": 3736,
      "æĬ«èĲ¨": 3737,
      "åº¦åģĩ": 3738,
      "ä½łè®¤ä¸º": 3739,
      "éĺ´": 3740,
      "æķ¦": 3741,
      "çı¾": 3742,
      "ç¦»å¼Ģ": 3743,
      "ãĢĭãĢĤ": 3744,
      "çķĻä¸ĭ": 3745,
      "å®¤åĨħ": 3746,
      "çĤ¸": 3747,
      "åĴĮåıĳå±ķ": 3748,
      "æ¶īåıĬåĪ°": 3749,
      "æįķ": 3750,
      "äººåľ¨": 3751,
      "åı¦ä¸Ģä¸ª": 3752,
      "çŃīéĹ®é¢ĺ": 3753,
      "æĻºæħ§": 3754,
      "èĩªä¸»": 3755,
      "éĥ¨éĹ¨": 3756,
      "ç²Ĵ": 3757,
      "çºłéĶĻ": 3758,
      "çļĦæĦıä¹ī": 3759,
      "ä¼łè¾¾": 3760,
      "ç»´çĶŁç´ł": 3761,
      "åħįçĸ«": 3762,
      "èĤ¯å®ļ": 3763,
      "çĶ·åŃ©": 3764,
      "¹é¥": 3765,
      "åĪĻæĺ¯": 3766,
      "å¤§å°ı": 3767,
      "å½¢çĬ¶": 3768,
      "æĽ¾ç»ı": 3769,
      "çī©çĲĨåŃ¦": 3770,
      "å°Ĩå®ĥä»¬": 3771,
      "æĲħ": 3772,
      "éģŃ": 3773,
      "èı²": 3774,
      "¹é¥ª": 3775,
      "è¯¢éĹ®": 3776,
      "åĶ¯": 3777,
      "æĤł": 3778,
      "ä¹ĭå¤Ħ": 3779,
      "çļĦæł¸": 3780,
      "æĸ°åŀĭ": 3781,
      "æĮĩå®ļ": 3782,
      "åĲĪéĢĤçļĦ": 3783,
      "æ¬§æ´²": 3784,
      "èĮĥåĽ´åĨħ": 3785,
      "æī°": 3786,
      "çļĦç»ĵæŀľ": 3787,
      "æ¸¸å®¢": 3788,
      "ç´§å¼ł": 3789,
      "ä¼¼ä¹İ": 3790,
      "om": 3791,
      "çļĩ": 3792,
      "èĢĥè¯ķ": 3793,
      "èıľåĵģ": 3794,
      "åĪºæ¿Ģ": 3795,
      "æŀģç«¯": 3796,
      "ä¹±": 3797,
      "çº·": 3798,
      "ä¸ºæĤ¨æıĲä¾Ľ": 3799,
      "è®¾ç½®": 3800,
      "æĸ¹éĿ¢çļĦ": 3801,
      "è·¨": 3802,
      "åĭķ": 3803,
      "çļĦç²¾": 3804,
      "å¿ł": 3805,
      "çļĦæ²»": 3806,
      "å°±åı¯ä»¥": 3807,
      "æī¬": 3808,
      "25": 3809,
      "åĨħéĥ¨": 3810,
      "è·¯ä¸Ĭ": 3811,
      "ç»¼åĲĪ": 3812,
      "æĺ¥å¤©": 3813,
      "ç´«": 3814,
      "11": 3815,
      "å°ıæĺİæīĭ": 3816,
      "åĩºå¤Ħ": 3817,
      "ä¸ŃçļĦåºĶçĶ¨": 3818,
      "çļĦç³ĸæŀľ": 3819,
      "çļĦæ¶": 3820,
      "è¿Ķ": 3821,
      "âĢĿãĢģâĢľ": 3822,
      "åıĤè§Ĥ": 3823,
      "ä¹Ķ": 3824,
      "å¹´è½»çļĦ": 3825,
      "æľīä¸Ģ": 3826,
      "åħĪçĶŁ": 3827,
      "æľīä¸ĢäºĽ": 3828,
      "å¢Ļ": 3829,
      "è¿ħéĢŁ": 3830,
      "éĿŀå¸¸æĦŁè°¢": 3831,
      "å°Ĩåľ¨": 3832,
      "è¿Ļä¸¤ä¸ª": 3833,
      "è´´": 3834,
      "èĥ¡": 3835,
      "çļĦæıĲ": 3836,
      "åĪĨåŃĲ": 3837,
      "è¿Ļå®¶é¤Ĳåİħ": 3838,
      "ä¸ĭéĻį": 3839,
      "èĬĤçº¦": 3840,
      "å¯¹æĸ¹": 3841,
      "çģŃ": 3842,
      "æĻ¨": 3843,
      "çļĦä¸Ģæ®µ": 3844,
      "åħ´å¥ĭ": 3845,
      "çļĦæ¼Ķ": 3846,
      "æľīçĤ¹": 3847,
      "çļĦæŀ": 3848,
      "éĺ²æŃ¢": 3849,
      "èĤ´": 3850,
      "GPT": 3851,
      "çĶµæ±ł": 3852,
      "æĺ¯éĿŀå¸¸": 3853,
      "è½¦è¾Ĩ": 3854,
      "å·¨å¤§çļĦ": 3855,
      "åħ·å¤ĩ": 3856,
      "é¡ºåºı": 3857,
      "åĬłä¸Ĭ": 3858,
      "èĩªçĦ¶çģ¾å®³": 3859,
      "è¦Ĩ": 3860,
      "è¢ĸ": 3861,
      "åĮ»éĻ¢": 3862,
      "äº§çĶŁäºĨ": 3863,
      "æĲħæĭĮ": 3864,
      "è¯¥æĸĩæľ¬": 3865,
      "åĵĪåĪ©": 3866,
      "æ¬²": 3867,
      "ç¾Ĭ": 3868,
      "çŃīå¾ħ": 3869,
      "è¯Ńæ°Ķ": 3870,
      "å¤§çº¦": 3871,
      "ä¸¾è¡Į": 3872,
      "éĩįè§Ĩ": 3873,
      "å±ħæ°ĳ": 3874,
      "å¾Īæľī": 3875,
      "å¼Ģå¤´": 3876,
      "ä¼ĺè´¨": 3877,
      "æĥ³æ³ķ": 3878,
      "çļĦå°ıè¯´": 3879,
      "æµ·å¹³éĿ¢": 3880,
      "ä¸»è¦ģè§ĤçĤ¹": 3881,
      "çĶŁæĪĲä¸Ģç¯ĩ": 3882,
      "è®¤çŁ¥": 3883,
      "èİī": 3884,
      "æľīçļĦ": 3885,
      "æīĵå¼Ģ": 3886,
      "èĬ³": 3887,
      "åį³ä½¿": 3888,
      "åħħè¶³": 3889,
      "èĤĮèĤī": 3890,
      "èĴ¸": 3891,
      "æĸĩç«łä¸ŃçļĦ": 3892,
      "åħµ": 3893,
      "çļĦæĬĢèĥ½": 3894,
      "ä¾µ": 3895,
      "éĢĤå½ĵçļĦ": 3896,
      "æĪĲè¯Ńåĩºå¤Ħ": 3897,
      "æī®": 3898,
      "æĿ¥è§£åĨ³": 3899,
      "å°ıæĿİ": 3900,
      "æĹ¶åĪ»": 3901,
      "æ½ľåľ¨": 3902,
      "çļĦä¸Ģéĥ¨åĪĨ": 3903,
      "åįģå¹´": 3904,
      "çĮİ": 3905,
      "ç»Łè®¡": 3906,
      "è²Į": 3907,
      "ä¸Ģåľº": 3908,
      "æĮĩå¯¼": 3909,
      "é»ĳèī²": 3910,
      "å¿½": 3911,
      "é¤Ĳé¦Ĩ": 3912,
      "åŃĲéĩĮ": 3913,
      "åį°è±¡": 3914,
      "è¯·æıĲåıĸ": 3915,
      "Jo": 3916,
      "è¢«å¹¿æ³Ľ": 3917,
      "åĩĨç¡®åľ°": 3918,
      "hon": 3919,
      "äººåı£": 3920,
      "å½¼æŃ¤": 3921,
      "å½±åĥı": 3922,
      "åħĭæľį": 3923,
      "åĪĨå¸ĥ": 3924,
      "çİ¯å¢ĥæ±¡æŁĵ": 3925,
      "çľŁå®ŀ": 3926,
      "éĽĨä¸Ń": 3927,
      "ä½¿çĶ¨äºĨ": 3928,
      "è´¦": 3929,
      "å¿ĥèĦı": 3930,
      "çłĶåıĳ": 3931,
      "an": 3932,
      "çļĦæİªæĸ½": 3933,
      "èĩªèº«": 3934,
      "å¤ľæĻļ": 3935,
      "æĪĳè§īå¾Ĺ": 3936,
      "æİĴåºı": 3937,
      "çļĦè®¾è®¡": 3938,
      "å¤ļæķ°": 3939,
      "çĶµå½±çļĦ": 3940,
      "è¾ħåĬ©": 3941,
      "ä¿¡ä»»": 3942,
      "åĸ»": 3943,
      "æİĪ": 3944,
      "çļĦåŁºç¡Ģ": 3945,
      "åĨ¬åŃ£": 3946,
      "16": 3947,
      "èĢĮæĺ¯": 3948,
      "ãĢĭï¼Į": 3949,
      "äºĨå¾Īå¤ļ": 3950,
      "ç¨İ": 3951,
      "åħ¬éĩĮ": 3952,
      "åŁ¹åħ»": 3953,
      "æĴ°": 3954,
      "æľĢå¤§çļĦ": 3955,
      "è¶ħå¸Ĥ": 3956,
      "æĪĳæĺ¯": 3957,
      "çº¤": 3958,
      "ç¬¬ä¸Ģä¸ª": 3959,
      "å¿ĥçĲĨåģ¥åº·": 3960,
      "æľĢé«ĺ": 3961,
      "ç®Ģæ´ģæĺİäºĨ": 3962,
      "èĮ¨": 3963,
      "çĲ´": 3964,
      "æĬ½åıĸåĩº": 3965,
      "æĽ´å¿«": 3966,
      "åı¤èĢģ": 3967,
      "å®£å¸ĥ": 3968,
      "çļĦä»»åĬ¡": 3969,
      "é¡µ": 3970,
      "ä½ľä¸ºä¸Ģä¸ª": 3971,
      "æĶ»åĩ»": 3972,
      "äººä»¬çļĦ": 3973,
      "ç¢İ": 3974,
      "å¤§èĦĳ": 3975,
      "ä¸¤ç§į": 3976,
      "æĸĩæĺİ": 3977,
      "çĽ¾": 3978,
      "çļĦæ²»çĸĹ": 3979,
      "åĴª": 3980,
      "çļĦæł¸å¿ĥ": 3981,
      "äººä½ĵ": 3982,
      "å¯Ĩçłģ": 3983,
      "ç£¨": 3984,
      "æĤ¬": 3985,
      "éĢ²": 3986,
      "çļĦæľįåĬ¡": 3987,
      "åĬ¨åĬĽ": 3988,
      "è®¡ç®Ĺæľºè§Ĩè§ī": 3989,
      "éĺ»": 3990,
      "èį·": 3991,
      "æĪĳæ²¡æľī": 3992,
      "çļĦæ¦Ĥå¿µ": 3993,
      "åĽ¾ä¹¦": 3994,
      "è¿ĳå¹´æĿ¥": 3995,
      "æĢ»çļĦ": 3996,
      "æŀĦå»º": 3997,
      "è§Ĩä¸º": 3998,
      "å¹¶ä¸º": 3999,
      "èĢį": 4000,
      "åŃĲåĴĮ": 4001,
      "èĤ¡ç¥¨": 4002,
      "åħ¬æŃ£": 4003,
      "å¾Īå¤§": 4004,
      "çİ©å®¶": 4005,
      "çļĦæ¢": 4006,
      "çĶĺ": 4007,
      "ä½ľå®¶": 4008,
      "éĩįå¤§": 4009,
      "æĪĸåħ¶ä»ĸ": 4010,
      "éķ¿æĹ¶éĹ´": 4011,
      "éĺµ": 4012,
      "èĩ³åħ³": 4013,
      "å¾ªçİ¯": 4014,
      "åĩ½": 4015,
      "æıĲç¤º": 4016,
      "åıªèĥ½": 4017,
      "åħ¬åĽŃéĩĮ": 4018,
      "åı¯ä»¥å°Ĩ": 4019,
      "æ²¿": 4020,
      "åŃĺåĤ¨": 4021,
      "ħåĬĽ": 4022,
      "åĲįä¸º": 4023,
      "è¿Ľè¡Įæĳĺè¦ģ": 4024,
      "æĺİçĻ½": 4025,
      "äº§åĵģçļĦ": 4026,
      "é¢ĨåŁŁçļĦ": 4027,
      "æĽ´å®¹æĺĵ": 4028,
      "æĿİæĺİ": 4029,
      "æ¢ħ": 4030,
      "çļĦç½ĳ": 4031,
      "æĽ¼": 4032,
      "ä¸Ģåħ±æľī": 4033,
      "çļĦæ¬": 4034,
      "åĴĮå®īåħ¨": 4035,
      "ç»ĵæĿŁ": 4036,
      "ä½łè§īå¾Ĺ": 4037,
      "è£Ļ": 4038,
      "hn": 4039,
      "éł": 4040,
      "ä¸ĭéĽ¨": 4041,
      "çļĦç¾İé£Ł": 4042,
      "çĳŀ": 4043,
      "èıĮ": 4044,
      "å°½éĩı": 4045,
      "æ¯ķ": 4046,
      "çļĦåĬ¨çī©": 4047,
      "èº«ä»½": 4048,
      "æİĺ": 4049,
      "åĨ³äºİ": 4050,
      "çŁ¿": 4051,
      "åıĸåĨ³äºİ": 4052,
      "æł¹æį®ç»Ļå®ļ": 4053,
      "çļĦåŁºæľ¬": 4054,
      "è§Ĵèī²ä¿¡æģ¯": 4055,
      "æĪĳä»¬çļĦçĶŁæ´»": 4056,
      "çģ°": 4057,
      "ä¿Ŀéļľ": 4058,
      "æĭĵ": 4059,
      "ä»·åĢ¼è§Ĥ": 4060,
      "åıĳæĺİ": 4061,
      "è±ª": 4062,
      "çļĦçĶŁæ´»æĸ¹å¼ı": 4063,
      "æ¼Ĥäº®": 4064,
      "ç»ıçĲĨ": 4065,
      "ä¸ºä½ł": 4066,
      "åĽŀçŃĶè¿Ļä¸ªéĹ®é¢ĺ": 4067,
      "åĴĮåºĶçĶ¨": 4068,
      "000": 4069,
      "çļĦäº§åĵģ": 4070,
      "åĲĦåľ°": 4071,
      "åĲĽ": 4072,
      "è½¬åĮĸ": 4073,
      "åķĨåĬ¡": 4074,
      "å°ıçĮ«": 4075,
      "æĢ»çļĦæĿ¥è¯´": 4076,
      "èµ¢å¾Ĺ": 4077,
      "è¯¸": 4078,
      "èģĺ": 4079,
      "çļĦæ½": 4080,
      "çĬ¯ç½ª": 4081,
      "è¯ģæį®": 4082,
      "Ã·": 4083,
      "çº¹": 4084,
      "ä¼¯": 4085,
      "æĳĨ": 4086,
      "ç»´æĮģ": 4087,
      "æĢİæł·": 4088,
      "John": 4089,
      "è¯ķåĽ¾": 4090,
      "é²ģ": 4091,
      "ç¼ºçĤ¹": 4092,
      "æĥ³è±¡": 4093,
      "æŁ¥è¯¢": 4094,
      "åı¯ä»¥éĢīæĭ©": 4095,
      "æĿİåĽĽ": 4096,
      "ä¹ŁéľĢè¦ģ": 4097,
      "Ġå¥½çļĦ": 4098,
      "çļĦçľĭ": 4099,
      "ä¸Ģä»¶": 4100,
      "åĭĩæ°Ķ": 4101,
      "å¤§éĩıçļĦ": 4102,
      "çļĦåĲ«ä¹ī": 4103,
      "èĻİ": 4104,
      "ä»¥æĿ¥": 4105,
      "ä»Ĭå¹´": 4106,
      "æĻĴ": 4107,
      "ä»İè¿Ļç¯ĩæĸĩç«łä¸ŃæıĲåıĸåĩº": 4108,
      "æŁĶè½¯": 4109,
      "æľīæķĪçļĦ": 4110,
      "ä¼¦æķ¦": 4111,
      "åŃĹç¬¦": 4112,
      "æľªçŁ¥": 4113,
      "å§Ķ": 4114,
      "çĽĳæµĭ": 4115,
      "è®¸å¤ļäºº": 4116,
      "AIæĬĢæľ¯": 4117,
      "åı¯ä»¥æł¹æį®": 4118,
      "èİ±": 4119,
      "åĴĮæľįåĬ¡": 4120,
      "åľĪ": 4121,
      "å¿ĥåĴĮ": 4122,
      "åĪļåĪļ": 4123,
      "ä»ª": 4124,
      "ä½Ĩä»ĸ": 4125,
      "éĢĬ": 4126,
      "æĺ¯åħ³äºİ": 4127,
      "ä¸ªæĢ§åĮĸ": 4128,
      "ä¸İåħ¶ä»ĸ": 4129,
      "æĺ¯æľĢ": 4130,
      "åį§": 4131,
      "åīª": 4132,
      "é¸£": 4133,
      "çłĶç©¶è¡¨æĺİ": 4134,
      "æĥħæĦŁåĪĨæŀĲ": 4135,
      "å¹½": 4136,
      "çļĦåıĺåĮĸ": 4137,
      "çİ©èĢį": 4138,
      "åıĤèĢĥ": 4139,
      "å¥½å¤Ħ": 4140,
      "çļĦçĸ": 4141,
      "ä¸ĵå®¶": 4142,
      "èĢħçļĦ": 4143,
      "èĢĮè¨Ģ": 4144,
      "å°ıåįİ": 4145,
      "ç¡®å®ŀ": 4146,
      "è¿Ļç¯ĩæĸĩç«łä¸Ń": 4147,
      "çĽĳçĿ£": 4148,
      "çļ®èĤ¤": 4149,
      "ä¼Ļ": 4150,
      "ä¸įè¶³": 4151,
      "çļĦæĥħåĨµä¸ĭ": 4152,
      "ç¢į": 4153,
      "éĻ·": 4154,
      "æ°¸è¿ľ": 4155,
      "å°±ä¼ļ": 4156,
      "èĬĿ": 4157,
      "çºłæŃ£": 4158,
      "éĤĢ": 4159,
      "è´Łè´£": 4160,
      "å§¿": 4161,
      "æĢª": 4162,
      "çļĦåħ·ä½ĵ": 4163,
      "çļĦæĶ¯æĮģ": 4164,
      "æģĭ": 4165,
      "éĩĮéĿ¢": 4166,
      "éĩĩåıĸæİªæĸ½": 4167,
      "æľīçĽĬ": 4168,
      "åĲĮåŃ¦": 4169,
      "åĴĮè°": 4170,
      "æŀĿ": 4171,
      "èħĲ": 4172,
      "è¯ģæĺİ": 4173,
      "åį°åº¦": 4174,
      "å¤§åŀĭ": 4175,
      "åĩ¡": 4176,
      "åĩºè¡Į": 4177,
      "è¯Ńåı¥": 4178,
      "è°ĥåĳ³": 4179,
      "æ¥ļ": 4180,
      "çļĦè¿ĩç¨ĭ": 4181,
      "å¹´è½»äºº": 4182,
      "çļĦæĢģ": 4183,
      "çİ©åħ·": 4184,
      "è®¿éĹ®": 4185,
      "ç®Ģçº¦": 4186,
      "çļĦé£İæł¼": 4187,
      "è°Ĭ": 4188,
      "åĽłä¸ºå®ĥä»¬": 4189,
      "äºĭæķħ": 4190,
      "æŃ»äº¡": 4191,
      "ä»¥ä¸ĭæ®µèĲ½": 4192,
      "åı¯èĥ½å¯¼èĩ´": 4193,
      "æĪĳæĥ³çŁ¥éģĵ": 4194,
      "å®ŀçĶ¨": 4195,
      "åĸľçĪ±": 4196,
      "æª¬": 4197,
      "æĽ´ä¸º": 4198,
      "å±±å³°": 4199,
      "æīĭæ®µ": 4200,
      "äº§ä¸ļ": 4201,
      "è§Ĥçľĭ": 4202,
      "çļĦæĥħç»ª": 4203,
      "åıĸå¾ĹäºĨ": 4204,
      "ce": 4205,
      "éĺĶ": 4206,
      "è¡«": 4207,
      "æĭĶ": 4208,
      "è¿ĻæĦıåĳ³çĿĢ": 4209,
      "æµģç¨ĭ": 4210,
      "Ġ1": 4211,
      "å°ıæĺİåĴĮ": 4212,
      "ĽçĽ¾": 4213,
      "æĳĩ": 4214,
      "łæª¬": 4215,
      "å±ı": 4216,
      "æŁ¥çľĭ": 4217,
      "çļĦæĹħæ¸¸": 4218,
      "çļĦçĬ": 4219,
      "å²©": 4220,
      "è¿ĲçĶ¨": 4221,
      "è¶³å¤ŁçļĦ": 4222,
      "ä¸Ģæ®µæĸĩæľ¬": 4223,
      "äººå£«": 4224,
      "èĴľ": 4225,
      "æ£ī": 4226,
      "åľ°ä¸Ĭ": 4227,
      "le": 4228,
      "çĶ·åŃĲ": 4229,
      "ä¿Ĺ": 4230,
      "åŀĥåľ¾åĪĨç±»": 4231,
      "è¢«ç§°ä¸º": 4232,
      "æĦŁåĪ°éĿŀå¸¸": 4233,
      "èĴĤ": 4234,
      "èıľèĤ´": 4235,
      "æŃ£å¼ı": 4236,
      "åŁ¹è®Ń": 4237,
      "å¤ļæł·æĢ§": 4238,
      "æĪĳä¸į": 4239,
      "æł¹æį®ä»¥ä¸ĭæĸĩæľ¬": 4240,
      "åĭĩæķ¢": 4241,
      "ç¼ĸåĨĻä¸Ģä¸ª": 4242,
      "ç©Ĩ": 4243,
      "åĢĴåħ¥": 4244,
      "å¹´ä»£": 4245,
      "åİĺ": 4246,
      "éķ¿çļĦ": 4247,
      "çĽ¸åıį": 4248,
      "è¿Ļæ¬¡": 4249,
      "å½±çīĩ": 4250,
      "ä¸ģ": 4251,
      "åħ³éĶ®åŃĹ": 4252,
      "çļĦçĭĹ": 4253,
      "âĢĿãĢĤ<|": 4254,
      "æī®æ¼Ķ": 4255,
      "ä¸»äººåħ¬": 4256,
      "çļĦçľĭæ³ķ": 4257,
      "æĬĢæľ¯åĴĮ": 4258,
      "æ²Ļæĭī": 4259,
      "åĪ©çĽĬ": 4260,
      "åľºæīĢ": 4261,
      "çĥ¹é¥ª": 4262,
      "è£ģ": 4263,
      "æĳ©": 4264,
      "æĶ¶åħ¥": 4265,
      "çĽŁ": 4266,
      "çļĦæĬķ": 4267,
      "å±ķå¼Ģ": 4268,
      "ç§Ł": 4269,
      "çļĦæ¸¸æĪı": 4270,
      "\"<|": 4271,
      "äº¤äºĴ": 4272,
      "17": 4273,
      "åĪĺ": 4274,
      "æŃ£å¸¸": 4275,
      "çģµæ´»": 4276,
      "å¼ķåıĳ": 4277,
      "æĪĲåĬŁçļĦ": 4278,
      "ä¾Ŀèµĸ": 4279,
      "ä¹Łä¸į": 4280,
      "æłĩçŃ¾": 4281,
      "æģ¢": 4282,
      "ä¸Ńæľī": 4283,
      "åĮ¹": 4284,
      "å®ŀæĹ¶": 4285,
      "æ¸ħæĸ°": 4286,
      "ä¸Ģå¹´": 4287,
      "çļĦæģ": 4288,
      "å½ĵæĹ¶": 4289,
      "éĩİçĶŁ": 4290,
      "çļĦä¸ĢäºĽ": 4291,
      "æĪĲæŀľ": 4292,
      "èĢģæĿ¿": 4293,
      "èģĮä½į": 4294,
      "åĿĢ": 4295,
      "æŁ¥æī¾": 4296,
      "æĻºèĥ½æīĭæľº": 4297,
      "å¤®": 4298,
      "å¿ħè¦ģçļĦ": 4299,
      "èŃ¦å¯Ł": 4300,
      "åĴĮæ°´": 4301,
      "æµ·å¹³éĿ¢ä¸Ĭåįĩ": 4302,
      "æĺ¾èĳĹ": 4303,
      "åľ¨ä¸ŃåĽ½": 4304,
      "æİ¢éĻ©": 4305,
      "çļĦçĽ®æłĩ": 4306,
      "è¿«": 4307,
      "å°¿": 4308,
      "æ³¢çī¹": 4309,
      "éĺ¶æ®µ": 4310,
      "æĭħå¿ĥ": 4311,
      "çļĦæ¢¦": 4312,
      "äºĮæ°§åĮĸ": 4313,
      "çļĦçī¹çĤ¹": 4314,
      "ä»Ļ": 4315,
      "çĸĳéĹ®": 4316,
      "è·ĥ": 4317,
      "çļĦæ³ķ": 4318,
      "åİŁæĸĩ": 4319,
      "åºĨç¥Ŀ": 4320,
      "ä¸ªæ©ĻåŃĲ": 4321,
      "ç«¹": 4322,
      "è®¤çľŁ": 4323,
      "å¢¨": 4324,
      "ä¸įè¶ħè¿ĩ": 4325,
      "çĭ®": 4326,
      "åı¯ä»¥çĶ¨": 4327,
      "ä»İè¿Ļç¯ĩæĸĩç«łä¸ŃæıĲåıĸ": 4328,
      "æĺĵæĩĤ": 4329,
      "æĹłéĻĲ": 4330,
      "åĲĮæł·": 4331,
      "æ·±è¿ľ": 4332,
      "å·¥èīº": 4333,
      "æ³ķè§Ħ": 4334,
      "å¿ĥæĢģ": 4335,
      "çļĦä¸ĸçķĮ": 4336,
      "ä¹°äºĨ": 4337,
      "çļĦçľŁ": 4338,
      "åħ¶ä¸ŃåĮħæĭ¬": 4339,
      "è°ĵè¯Ń": 4340,
      "é¸¡èĤī": 4341,
      "ä½ĵéĩį": 4342,
      "å¯¼æ¼Ķ": 4343,
      "è¦ģçĤ¹": 4344,
      "åŁİå¸ĤçļĦ": 4345,
      "èİİ": 4346,
      "åŃ¦ç§ĳ": 4347,
      "æĬĳ": 4348,
      "å¤§å¤ļæķ°": 4349,
      "æ¶µçĽĸ": 4350,
      "å·¥ç¨ĭå¸Ī": 4351,
      "èĬĤæĹ¥": 4352,
      "åĢ¼å¾Ĺä¸Ģ": 4353,
      "åı¯ä»¥èĢĥèĻĳ": 4354,
      "è¢«è®¤ä¸ºæĺ¯": 4355,
      "æī¾åĪ°äºĨ": 4356,
      "éĩĬæĶ¾": 4357,
      "æľĢéĩįè¦ģ": 4358,
      "é²¸": 4359,
      "ä¼¦çĲĨ": 4360,
      "çļĦçĮ": 4361,
      "éĥ½åľ¨": 4362,
      "å¦Ĥæŀľä½łåĸľæ¬¢": 4363,
      "åĲĥäºĨ": 4364,
      "åĲĪçī©": 4365,
      "éĹ®é¢ĺçļĦ": 4366,
      "çŁ¥åĲį": 4367,
      "åĴĮæĶ¯æĮģ": 4368,
      "å¼Ģå¿ĥ": 4369,
      "ä¸įæĸŃåľ°": 4370,
      "ä¸Ģç³»åĪĹ": 4371,
      "ç¡®è®¤": 4372,
      "åģļå¥½": 4373,
      "å¦Ĥä½ķåľ¨": 4374,
      "æĺ¯åĲ¦æľī": 4375,
      "æıŃ": 4376,
      "çº¤ç»´": 4377,
      "éľľ": 4378,
      "åıĭè°Ĭ": 4379,
      "çļĦæĽ": 4380,
      "é¸Ń": 4381,
      "æĭľ": 4382,
      "æĥľ": 4383,
      "çļĦæ¨": 4384,
      "çĩķ": 4385,
      "æĦŁæŁĵ": 4386,
      "è´§å¸ģ": 4387,
      "å°Ĩä»¥ä¸ĭæĸĩæľ¬": 4388,
      "å°Ĩä»¥ä¸ĭåı¥åŃĲ": 4389,
      "åĽ¾åĥıè¯ĨåĪ«": 4390,
      "å¼Ł": 4391,
      "å¾Ĵ": 4392,
      "åľ¨è¿ĩåİ»": 4393,
      "å°Ĭæķ¬": 4394,
      "çĭĹçĭĹ": 4395,
      "éģµå®Ī": 4396,
      "çļĦæ¶Ī": 4397,
      "é£Łè°±": 4398,
      "å¦ĩ": 4399,
      "æŁłæª¬": 4400,
      "æķĪçİĩåĴĮ": 4401,
      "çļĦä¸»æĹ¨": 4402,
      "åĩ½æķ°": 4403,
      "å¥½çľĭ": 4404,
      "èĤł": 4405,
      "äººç±»æ´»åĬ¨": 4406,
      "è¶ĬæĿ¥è¶Ĭå¤ļ": 4407,
      "æŃĮè¯į": 4408,
      "çĽĳç®¡": 4409,
      "æĽ¿ä»£": 4410,
      "æİ¨æĸŃ": 4411,
      "æĦıè¯ĨåĪ°": 4412,
      "æ®ĸ": 4413,
      "æĲº": 4414,
      "60": 4415,
      "ä¼ļå¯¼èĩ´": 4416,
      "2021": 4417,
      "èĤĸ": 4418,
      "çļĦç¥ŀ": 4419,
      "åľ¨å®¶éĩĮ": 4420,
      "è½»è½»": 4421,
      "æµ·è¾¹": 4422,
      "æĦ¿æĦı": 4423,
      "ç»ĻäºĨ": 4424,
      "æĪĳä¹Ł": 4425,
      "çļĦæŃ£": 4426,
      "æĻ®éĢļ": 4427,
      "éĨī": 4428,
      "ä¹ĭéĹ´çļĦåħ³ç³»": 4429,
      "å·²ç»ıæĪĲä¸º": 4430,
      "æĶ¯éĵħç¬Ķ": 4431,
      "åĽŀå¿Ĩ": 4432,
      "ä½łåľ¨": 4433,
      "è¯¥åħ¬åı¸": 4434,
      "åĸľæ¬¢åĲĥ": 4435,
      "éĥ½åı¯ä»¥": 4436,
      "åĪł": 4437,
      "çļĦæĳĦ": 4438,
      "çļĦæ·±": 4439,
      "éĻ¤ä»¥": 4440,
      "èıľåįķ": 4441,
      "æĹłäºº": 4442,
      "æĿ¥å®ŀçİ°": 4443,
      "è¿Ł": 4444,
      "éĻª": 4445,
      "çļĦæ½ľ": 4446,
      "40": 4447,
      "è·¯çº¿": 4448,
      "æ´ª": 4449,
      "éģİ": 4450,
      "æııç»ĺ": 4451,
      "æĽ´æľī": 4452,
      "èģļä¼ļ": 4453,
      "æĪĲä¸Ģä¸ª": 4454,
      "äºĴçĽ¸": 4455,
      "ä¸ĢåĢĭ": 4456,
      "é¸Łç±»": 4457,
      "çļĦçĪ±æĥħ": 4458,
      "æİĴåĪĹ": 4459,
      "èĴĻ": 4460,
      "åľ°çĲĥçļĦ": 4461,
      "æĮĤ": 4462,
      "ç¤¼çī©": 4463,
      "å°ıé¸Ł": 4464,
      "æĤī": 4465,
      "éģĵè·¯": 4466,
      "åĴĮè°Ĳ": 4467,
      "äºĮæ°§åĮĸç¢³": 4468,
      "çļĦæİĴ": 4469,
      "æ¡ĥ": 4470,
      "æĽ´æĸ°": 4471,
      "ä¿ĿéĻ©": 4472,
      "æľºåĪ¶": 4473,
      "è´¸": 4474,
      "åĢį": 4475,
      "åĪĹä¸¾": 4476,
      "åĭĴ": 4477,
      "ä½łä¼ļ": 4478,
      "å¯¹åħ¶": 4479,
      "ä»ĸæĥ³": 4480,
      "ä»ĭç»įä¸Ģä¸ĭ": 4481,
      "èĭ±æĸĩ": 4482,
      "çĻ½èī²": 4483,
      "äºĭä¸ļ": 4484,
      "çļĦä¸į": 4485,
      "åį«æĺŁ": 4486,
      "å®ĹæķĻ": 4487,
      "èĬĴ": 4488,
      "è¯»ä¹¦": 4489,
      "åķĨåºĹ": 4490,
      "ä¿ĿæĮģåģ¥åº·": 4491,
      "ä¸ľäº¬": 4492,
      "è¯·çĶ¨": 4493,
      "ä»¿ä½Ľ": 4494,
      "èĥ½åĬĽåĴĮ": 4495,
      "æł¹æį®è¾ĵåħ¥": 4496,
      "æģ¢å¤į": 4497,
      "åĪĢ": 4498,
      "çİĩåĴĮ": 4499,
      "çº½çº¦å¸Ĥ": 4500,
      "ä¸Ģå¼ł": 4501,
      "æ·ĩ": 4502,
      "ä¸ĢçĽ´åľ¨": 4503,
      "\"ï¼Į": 4504,
      "è®©äººä»¬": 4505,
      "èĻļæĭŁçİ°å®ŀ": 4506,
      "çļĦæŁ": 4507,
      "éĿ¢æĸĻ": 4508,
      "çļĦé«ĺ": 4509,
      "çļĦæŃ¥": 4510,
      "çļĦå¤ĸ": 4511,
      "åĽ¾ä¹¦é¦Ĩ": 4512,
      "å°½åĬĽ": 4513,
      "åĲĮäºĭ": 4514,
      "çŃĶæ¡Īæĺ¯": 4515,
      "èĥ¸": 4516,
      "ä¼¤å®³": 4517,
      "é¢ĨåŁŁä¸Ń": 4518,
      "è¿Ĳè¡Į": 4519,
      "ç§įæ¤į": 4520,
      "æĻ®éģį": 4521,
      "å°ıæľĭåıĭ": 4522,
      "å¦Īå¦Ī": 4523,
      "æłĩå¿Ĺ": 4524,
      "æĬĵ": 4525,
      "éªĮè¯ģ": 4526,
      "è¯´è¯Ŀ": 4527,
      "çĭĤ": 4528,
      "åĵªç§į": 4529,
      "ä»İä»¥ä¸ĭ": 4530,
      "èĢĢ": 4531,
      "åıĭå¥½": 4532,
      "å£¤": 4533,
      "æľºåĻ¨åŃ¦ä¹łç®Ĺæ³ķ": 4534,
      "ä»ĸä»¬åľ¨": 4535,
      "å¾Īå¥½çļĦ": 4536,
      "çļĦåħ³ç³»": 4537,
      "æĪĳéĿŀå¸¸": 4538,
      "çĬ¹": 4539,
      "æĺ¯å¤ļå°ĳ": 4540,
      "åħīçº¿": 4541,
      "åĨ°æ·ĩ": 4542,
      "åĪ«äºº": 4543,
      "éĺĲ": 4544,
      "åĬĽåŃ¦": 4545,
      "å°ıæĺİå®¶": 4546,
      "äººå·¥æĻºèĥ½çļĦåıĳå±ķ": 4547,
      "çĶ·æĢ§": 4548,
      "æĻºèĥ½åĮĸ": 4549,
      "åľ°éľĩ": 4550,
      "åĪĽä¸ļ": 4551,
      "å°±åĥı": 4552,
      "ä¸¦": 4553,
      "åĨ°æ·ĩæ·ĭ": 4554,
      "ä¼ĺæĥł": 4555,
      "æ¯ĶèµĽä¸Ń": 4556,
      "ç¾¤ä½ĵ": 4557,
      "Tom": 4558,
      "æĺ¯ä¸į": 4559,
      "åıªè¦ģ": 4560,
      "æĸ°éĹ»æĸĩç«ł": 4561,
      "çļĦæľºä¼ļ": 4562,
      "èĥľåĪ©": 4563,
      "åħļ": 4564,
      "æħ¢æħ¢": 4565,
      "ä¾ĽåºĶ": 4566,
      "ä¸²": 4567,
      "ä½¿çĶ¨çļĦ": 4568,
      "åħ¬ä¼Ĺ": 4569,
      "çĥŃæĥħ": 4570,
      "çĶŁæĪĲæĳĺè¦ģ": 4571,
      "æ¦Ĥè¿°": 4572,
      "æĽ´é«ĺ": 4573,
      "å¼ķåĬĽ": 4574,
      "åĬłéĢŁ": 4575,
      "ä¸§": 4576,
      "æ¢¦æĥ³": 4577,
      "åįľ": 4578,
      "æĺ¯åĽłä¸º": 4579,
      "åĴĮæľĭåıĭ": 4580,
      "åĪĩæĪĲ": 4581,
      "ï¼ļ\"": 4582,
      "å®¿": 4583,
      "æĮĩçļĦæĺ¯": 4584,
      "åĪ·": 4585,
      "å®Įç¾İ": 4586,
      "å°ĺ": 4587,
      "æĺ¯å¦Ĥä½ķ": 4588,
      "æ³Ĭ": 4589,
      "å¼Ĺ": 4590,
      "è°ĥèĬĤ": 4591,
      "é£ŀæľº": 4592,
      "è®²è¿°äºĨä¸Ģä¸ª": 4593,
      "çļĦæ¯ı": 4594,
      "åĭ¤": 4595,
      "å«Į": 4596,
      "æľĢåĸľæ¬¢çļĦ": 4597,
      "åľ¨è¿ĻéĩĮ": 4598,
      "è¿Ļåıª": 4599,
      "åħ¶å®ŀ": 4600,
      "çļĦçĻ": 4601,
      "æĿĥåĪ©": 4602,
      "ä¸Ĭæĸĩ": 4603,
      "ç¨®": 4604,
      "çĽĹ": 4605,
      "çŁĽçĽ¾": 4606,
      "è¯ķè¯ķ": 4607,
      "çļĦè¯ĹæŃĮ": 4608,
      "ä¾§": 4609,
      "èº«ä½ĵåĴĮ": 4610,
      "ä¿¡ä»°": 4611,
      "çĽ®çļĦæĺ¯": 4612,
      "çļĦæ£": 4613,
      "è¿Ļæĺ¯ä¸Ģç¯ĩ": 4614,
      "24": 4615,
      "æī©å¤§": 4616,
      "çļĦç¼ĸ": 4617,
      "å¯¸": 4618,
      "ç®Ģä»ĭ": 4619,
      "ãĢĤ'": 4620,
      "æĿİåįİ": 4621,
      "åĴĮå·¥ä½ľ": 4622,
      "åĬĽäºİ": 4623,
      "æı´": 4624,
      "å¹¶å°Ĩåħ¶": 4625,
      "å§ĵåĲį": 4626,
      "æ¶Ĥ": 4627,
      "å°ĳå¹´": 4628,
      "è¿Ļå°Ĩ": 4629,
      "ä¸Ģçīĩ": 4630,
      "å¹¶å°Ĩ": 4631,
      "å¦Ĥæŀľä½łæĥ³": 4632,
      "ä¸įæĸŃåıĳå±ķ": 4633,
      "å¹¿æ³ĽåºĶçĶ¨": 4634,
      "éĩĩåıĸè¡ĮåĬ¨": 4635,
      "è¿Ļæł·çļĦ": 4636,
      "çļĦçľ¼": 4637,
      "14": 4638,
      "çļĦä½įç½®": 4639,
      "å®¶åħ·": 4640,
      "è¯ĨåĪ«åĩº": 4641,
      "çļĦè´¨éĩı": 4642,
      "ä½łå¯¹": 4643,
      "æĦıå¤§åĪ©éĿ¢": 4644,
      "é¬": 4645,
      "æ®ĭ": 4646,
      "è½¨": 4647,
      "æĵİ": 4648,
      "å¤©çĦ¶": 4649,
      "ä¸įéľĢè¦ģ": 4650,
      "å¥Ķ": 4651,
      "åĲįè¯įçŁŃè¯Ń": 4652,
      "æīĭæľ¯": 4653,
      "æľĢæĸ°çļĦ": 4654,
      "äº¤éĢļå·¥åħ·": 4655,
      "çĤ¹ç¬¦åı·": 4656,
      "æĹģ": 4657,
      "å¯Įæľī": 4658,
      "è¿Ļæ®µæĸĩåŃĹ": 4659,
      "åĴĮå¹³": 4660,
      "å¹¶ä¸įæĺ¯": 4661,
      "åıĸä»£": 4662,
      "çīĽèĤī": 4663,
      "æĥħæĦŁåĪĨç±»": 4664,
      "ãĢĮ": 4665,
      "ä»¥ä¸ĭéĹ®é¢ĺ": 4666,
      "ä¿®æŃ£": 4667,
      "å®Ŀå®Ŀ": 4668,
      "åİŁåĪĻ": 4669,
      "æī£": 4670,
      "æĶ¾å¼ĥ": 4671,
      "æ·±åĳ¼åĲ¸": 4672,
      "æĺ¯æĪĳä»¬": 4673,
      "è´«": 4674,
      "å¯¹è±¡": 4675,
      "é»ĳæļĹ": 4676,
      "è§ĦèĮĥ": 4677,
      "æ¯«": 4678,
      "è¿ĺèĥ½": 4679,
      "NA": 4680,
      "ãĢį": 4681,
      "å°½å¿«": 4682,
      "å¹¶ç»Ļåĩº": 4683,
      "æĶ¹ä¸º": 4684,
      "li": 4685,
      "è½¬æį¢ä¸º": 4686,
      "èĺ": 4687,
      "ä½łæľīä»Ģä¹Ī": 4688,
      "æıĲä¾ĽçļĦ": 4689,
      "å¯¿åĳ½": 4690,
      "åı£è¯Ń": 4691,
      "åħĶåŃĲ": 4692,
      "æĢİä¹Īæł·": 4693,
      "æĪĳå°Ĩ": 4694,
      "åıĳåĩº": 4695,
      "åºĦ": 4696,
      "åĩĨç¡®æĢ§": 4697,
      "çļĦæ°´æŀľ": 4698,
      "æĽ´å¥½åľ°çĲĨè§£": 4699,
      "å¯Ĥ": 4700,
      "ä¹Į": 4701,
      "ä¹Łå°±æĺ¯": 4702,
      "æĺ¯ä¸ª": 4703,
      "éħª": 4704,
      "æ¶ĪèĢĹ": 4705,
      "æĤ¨å¥½": 4706,
      "Ġ5": 4707,
      "æİ¥çĿĢ": 4708,
      "ä¸ĢåĪĩ": 4709,
      "çĥ¦": 4710,
      "æĹ¥å¸¸çĶŁæ´»": 4711,
      "åľºåĲĪ": 4712,
      "æĿ¥æıĲé«ĺ": 4713,
      "åģıå¥½": 4714,
      "åľ¨æŃ¤": 4715,
      "ç¥ŀç§ĺçļĦ": 4716,
      "å½ĵä»Ĭ": 4717,
      "ä¸¥æł¼": 4718,
      "å¼ķæĵİ": 4719,
      "æ¸ħåįķ": 4720,
      "ç¬¬äºĮä¸ª": 4721,
      "ç±»åŀĭçļĦ": 4722,
      "åĽ½åĨħ": 4723,
      "ä¸īç§į": 4724,
      "åĮºåĪ«": 4725,
      "ï¼ļ'": 4726,
      "æł¹æį®æīĢ": 4727,
      "å¼ºå¤§": 4728,
      "ç½ļ": 4729,
      "è¯·å¯¹": 4730,
      "çĮª": 4731,
      "æĿ¥çľĭ": 4732,
      "æııè¿°ä¸Ģä¸ĭ": 4733,
      "èĬĤå¥ı": 4734,
      "çīĪæľ¬": 4735,
      "æİ¨èįĲä¸ĢäºĽ": 4736,
      "ä¼¸": 4737,
      "åİĤ": 4738,
      "çŃīæĸ¹å¼ı": 4739,
      "åİĭåĬĽåĴĮ": 4740,
      "è´¹çĶ¨": 4741,
      "çĩĥæĸĻ": 4742,
      "æıĴ": 4743,
      "åĴĮåĪĨæŀĲ": 4744,
      "æµ¸": 4745,
      "æĪ·å¤ĸæ´»åĬ¨": 4746,
      "ä¼łéĢĴ": 4747,
      "å°¼åħĭ": 4748,
      "æĦŁåĴĮ": 4749,
      "åĲ¬åĪ°": 4750,
      "å¯¹æīĭ": 4751,
      "è¿Ļä½į": 4752,
      "èį¡": 4753,
      "çļĦæĢģåº¦": 4754,
      "åĲİçļĦ": 4755,
      "æĬµ": 4756,
      "çĶµåĬ¨": 4757,
      "èĬ±è´¹": 4758,
      "æĢģåº¦": 4759,
      "åıĺéĿ©": 4760,
      "å°¤åħ¶æĺ¯": 4761,
      "è¦ģæ³¨æĦı": 4762,
      "åŃĶ": 4763,
      "å£ģ": 4764,
      "å¹¿æ³ĽçļĦåºĶçĶ¨": 4765,
      "èĬ¬": 4766,
      "å¤±åİ»": 4767,
      "æ¨¡ä»¿": 4768,
      "è¯ĦåĪĨ": 4769,
      "çļĦåŃ¦ä¹ł": 4770,
      "åĽĽä¸ª": 4771,
      "åı¯èĥ½æĢ§": 4772,
      "æĸ°äº§åĵģ": 4773,
      "åģ·": 4774,
      "åı«åģļ": 4775,
      "é«Ķ": 4776,
      "åı¯ä»¥æĺ¯": 4777,
      "è¾ŀ": 4778,
      "æ»¤": 4779,
      "å¥½äºĨ": 4780,
      "åĮĸåĲĪçī©": 4781,
      "äºİæĺ¯": 4782,
      "ä¸ĢçĤ¹": 4783,
      "è´¯": 4784,
      "çľ¼çĿĽ": 4785,
      "13": 4786,
      "éĻ¤æŃ¤": 4787,
      "ç¢Ĺ": 4788,
      "éĶĢåĶ®é¢Ŀ": 4789,
      "æŀĦæĪĲ": 4790,
      "åİ¿": 4791,
      "å°Ĩä¸ĭéĿ¢": 4792,
      "æľīæĹ¶": 4793,
      "åĲĪåĲĮ": 4794,
      "åłµ": 4795,
      "é³": 4796,
      "äººå·¥æĻºèĥ½çļĦåºĶçĶ¨": 4797,
      "æľºåĻ¨ç¿»è¯ĳ": 4798,
      "èĪĩ": 4799,
      "æ°´åĴĮ": 4800,
      "éļıæľº": 4801,
      "é¦Ļæ¸¯": 4802,
      "é©±": 4803,
      "çļĦæĸĩåĮĸ": 4804,
      "åĶ¯ä¸Ģ": 4805,
      "åľŁå£¤": 4806,
      "æ°´ä¸Ń": 4807,
      "èĩ´åĬĽäºİ": 4808,
      "åıĳå±ķçļĦ": 4809,
      "ä¸ºä¸Ģä¸ª": 4810,
      "é¦¨": 4811,
      "ä¿¡åı·": 4812,
      "å¥¥è¿Ĳ": 4813,
      "æ¯ıæ¬¡": 4814,
      "è¯Ńæ³ķåĴĮ": 4815,
      "åĢ¾åĲĳ": 4816,
      "æĺ¯ä¸Ģé¡¹": 4817,
      "æĻ¯è§Ĥ": 4818,
      "éĤĢè¯·": 4819,
      "å®ģéĿĻ": 4820,
      "éľĢè¦ģæ³¨æĦıçļĦæĺ¯": 4821,
      "å¿ĥçģµ": 4822,
      "çļĦç¾İå¥½": 4823,
      "æĺĵäºİçĲĨè§£": 4824,
      "æĸĩä¸Ń": 4825,
      "ç»ĻæĪĳä¸Ģä¸ª": 4826,
      "å¯¹æĸĩæľ¬": 4827,
      "èĭ±éĽĦ": 4828,
      "æķ´ä½ĵ": 4829,
      "éĩįåĨĻä»¥ä¸ĭåı¥åŃĲ": 4830,
      "éĻ¤æŃ¤ä¹ĭå¤ĸ": 4831,
      "æĵħ": 4832,
      "è±¡å¾ģ": 4833,
      "èģĶåĲĪ": 4834,
      "åĴĮæķ°æį®": 4835,
      "yt": 4836,
      "æĮĳ": 4837,
      "å®ĮåĸĦ": 4838,
      "æĢİä¹ĪåĬŀ": 4839,
      "éĿŀå¸¸æľī": 4840,
      "æ¨¡æĭŁäººç±»": 4841,
      "å¦¹": 4842,
      "æĪĲç«ĭ": 4843,
      "çİ°åľ¨è¯·ä½ł": 4844,
      "èµĦæĸĻ": 4845,
      "èµĭ": 4846,
      "åı¦ä¸Ģ": 4847,
      "è®¯": 4848,
      "ãĢĤãĢĬ": 4849,
      "è¿ĻäºĽéĹ®é¢ĺ": 4850,
      "å¤±è´¥": 4851,
      "è¿Ļåº§": 4852,
      "å¾Īéļ¾": 4853,
      "æĮĸ": 4854,
      "çļĦæµģ": 4855,
      "èħ»": 4856,
      "éĸĭ": 4857,
      "å¸¦æĿ¥çļĦ": 4858,
      "å¾·åĽ½": 4859,
      "åĴĮé«ĺ": 4860,
      "ç»Ĵ": 4861,
      "æ¤ħ": 4862,
      "å¸Ń": 4863,
      "åĴĮæĬĢæľ¯": 4864,
      "é¢Ħè®¡": 4865,
      "é½Ĳ": 4866,
      "èĬĤçĽ®": 4867,
      "åĮĹæŀģ": 4868,
      "æĩī": 4869,
      "å¸½": 4870,
      "çģ«æĺŁ": 4871,
      "å½ĵä½ł": 4872,
      "ä¸¾åĬŀ": 4873,
      "æľīäºº": 4874,
      "å®īè£ħ": 4875,
      "çļĦæ¨¡": 4876,
      "å¸®æĪĳæĥ³": 4877,
      "çļĦæĹ¥": 4878,
      "çļĦç¨ĭ": 4879,
      "çĻĮçĹĩ": 4880,
      "åı¯èĥ½ä¼ļå¯¼èĩ´": 4881,
      "æ¼Ķè®²": 4882,
      "åıįæĺł": 4883,
      "ä¸¹": 4884,
      "å¾Ģå¾Ģ": 4885,
      "å¤©ä½ĵ": 4886,
      "æ´ĭèĳ±": 4887,
      "è¹Ī": 4888,
      "ç¤¾ä¼ļçļĦ": 4889,
      "éĸĵ": 4890,
      "è¯¥æĸĩç«ł": 4891,
      "èµĦéĩĳ": 4892,
      "ä¾¿æį·": 4893,
      "çļĦæĥħèĬĤ": 4894,
      "çļĦæĦŁåıĹ": 4895,
      "è¯·ç»ŃåĨĻ": 4896,
      "ä¼ļå¯¹": 4897,
      "çļĦæĬĢå·§": 4898,
      "å¹³æĸ¹": 4899,
      "éŁµ": 4900,
      "æĴŀ": 4901,
      "è¡¬": 4902,
      "æīĢè¿°": 4903,
      "çī¹åĪ«æĺ¯": 4904,
      "ython": 4905,
      "æ¯ıå¹´": 4906,
      "äººå¿ĥ": 4907,
      "ä¸Ńç«ĭ": 4908,
      "ç²¾åĩĨ": 4909,
      "è¦ĨçĽĸ": 4910,
      "ç£ģ": 4911,
      "Ŀåįľ": 4912,
      "ä¸Ĭæľī": 4913,
      "å¹¶è¿Ľè¡Į": 4914,
      "çļĦè¿ĩç¨ĭä¸Ń": 4915,
      "æĭ¼åĨĻéĶĻè¯¯": 4916,
      "æľĪçĲĥ": 4917,
      "æ¼ł": 4918,
      "åı¯ä»¥å°Ŀè¯ķ": 4919,
      "ä¼Ļä¼´": 4920,
      "åħĪè¿Ľ": 4921,
      "è¿ĺæľīåħ¶ä»ĸ": 4922,
      "éĢļå¸¸æĺ¯": 4923,
      "æľīæľº": 4924,
      "äºĨä»Ģä¹Ī": 4925,
      "çĪ¸": 4926,
      "æ¯ıäºº": 4927,
      "æĴĴ": 4928,
      "çļĦæĶ¹": 4929,
      "åº¦çļĦ": 4930,
      "åŃ¦æľ¯": 4931,
      "å®ļåĪ¶": 4932,
      "æłĩè®°": 4933,
      "ç»ĻæĪĳä¸ĢäºĽ": 4934,
      "åĩĿ": 4935,
      "åħ±äº«": 4936,
      "è¿Ļéģĵ": 4937,
      "åĩºçĶŁ": 4938,
      "ç»ĻäºĪ": 4939,
      "åı¯ä»¥å¸®åĬ©æĪĳä»¬": 4940,
      "åªļ": 4941,
      "éĿŀæ³ķ": 4942,
      "è¿Ļåľº": 4943,
      "åĿĩè¡¡": 4944,
      "Python": 4945,
      "èĿ¶": 4946,
      "éŃħåĬĽ": 4947,
      "ç§ĳæĬĢçļĦ": 4948,
      "äººå·¥æĻºèĥ½åı¯ä»¥": 4949,
      "åħ¬å¹³": 4950,
      "èķ´": 4951,
      "çªģåĩº": 4952,
      "çļĦæĳĦåħ¥": 4953,
      "ä¼ļåľ¨": 4954,
      "åģ¶": 4955,
      "éĻ¤æ³ķ": 4956,
      "ç¶ĵ": 4957,
      "éĹľ": 4958,
      "æĸĩç«łåĨħå®¹": 4959,
      "äººå·¥æĻºèĥ½åľ¨åĮ»çĸĹé¢ĨåŁŁ": 4960,
      "éĿŀæ´²": 4961,
      "è¡¨çİ°åĩº": 4962,
      "ä¸Ńå¤®": 4963,
      "æ»´": 4964,
      "æĪĳå·²ç»ı": 4965,
      "çļĦæķĪæŀľ": 4966,
      "ç¾½": 4967,
      "ç½ĳä¸Ĭ": 4968,
      "åĴĮæĥħæĦŁ": 4969,
      "åĩ¯": 4970,
      "å°ıçİĭ": 4971,
      "æļĤ": 4972,
      "æĭĤ": 4973,
      "å¤ĸå¥Ĺ": 4974,
      "æīĭè¡¨": 4975,
      "åıĹæ¬¢è¿İçļĦ": 4976,
      "å¼ķäºº": 4977,
      "ä¼łç»ŁçļĦ": 4978,
      "å°ıçļĦ": 4979,
      "è¯·åĽŀçŃĶ": 4980,
      "ç»Īäºİ": 4981,
      "è¯·ç»ŃåĨĻä»ĸä»¬çļĦå¯¹è¯ĿåĨħå®¹": 4982,
      "åĪłéĻ¤": 4983,
      "ç¼ĺ": 4984,
      "åĩłå¹´": 4985,
      "æĺ¯äººç±»": 4986,
      "çļĦä»·æł¼": 4987,
      "çļĦç¤¾äº¤": 4988,
      "æĪĳå¸ĮæľĽ": 4989,
      "ä¿ĿçķĻ": 4990,
      "çĲĥåĳĺ": 4991,
      "èįĴ": 4992,
      "æĪĳå¯¹": 4993,
      "æııè¿°ä¸Ģä¸ª": 4994,
      "éļľç¢į": 4995,
      "çļĦæ¸ħ": 4996,
      "åģ¥åº·åĴĮ": 4997,
      "çļĦé¦ĸ": 4998,
      "çļĦæ¢¦æĥ³": 4999,
      "è¿ĶåĽŀ": 5000,
      "å¸Ĥä¸Ńå¿ĥ": 5001,
      "çģ«è½¦": 5002,
      "èĪŀè¹Ī": 5003,
      "ç»ĻæĤ¨": 5004,
      "è¡ĵ": 5005,
      "çļĦä¹¦": 5006,
      "ä¸įåĪ°": 5007,
      "å¤ıæĹ¥": 5008,
      "æ¶Īæģ¯": 5009,
      "çİ¯ä¿ĿæĦıè¯Ĩ": 5010,
      "éĢĹ": 5011,
      "å±±èĦī": 5012,
      "ç©·": 5013,
      "éĥ½èĥ½": 5014,
      "AIè¯Ńè¨Ģæ¨¡åŀĭ": 5015,
      "æĪĳè¦ģ": 5016,
      "è¿Ļä¹Ī": 5017,
      "æĽ´å¥½åľ°äºĨè§£": 5018,
      "çĮ«åĴª": 5019,
      "éĩįéĩı": 5020,
      "å¿łè¯ļ": 5021,
      "GPTæ¨¡åŀĭ": 5022,
      "æĪĳåĢĳ": 5023,
      "ç½©": 5024,
      "å¤ªç©ºæİ¢ç´¢": 5025,
      "éģĹäº§": 5026,
      "åįķä½į": 5027,
      "ä¸¤ä¸ªäºº": 5028,
      "æ³¨æĦıåĬĽ": 5029,
      "åİ»å¹´": 5030,
      "ä¸įå¥½": 5031,
      "åĪĨæĶ¯": 5032,
      "èıĩ": 5033,
      "æľºéģĩ": 5034,
      "çĥŃéĹ¨": 5035,
      "æ¼ı": 5036,
      "æĿĲè´¨": 5037,
      "ä¹Łåľ¨": 5038,
      "åĲ¸æĶ¶": 5039,
      "è°¨": 5040,
      "éĢıæĺİ": 5041,
      "åİŁå§ĭæĸĩæľ¬": 5042,
      "æµĭéĩı": 5043,
      "è´¸æĺĵ": 5044,
      "æĬķåħ¥": 5045,
      "é¥®é£Łä¹łæĥ¯": 5046,
      "å®¶æĹı": 5047,
      "æĢĸ": 5048,
      "çļĦçĬ¶": 5049,
      "æľįè£ħ": 5050,
      "éĶģ": 5051,
      "å¾ĭå¸Ī": 5052,
      "èŀįåĲĪ": 5053,
      "æĺ¯éĢļè¿ĩ": 5054,
      "çļĦå¥½å¤Ħ": 5055,
      "è¿Ļæĺ¯åĽłä¸º": 5056,
      "ä¸įåĨį": 5057,
      "åŃ©åŃĲä»¬": 5058,
      "è¯ĬæĸŃåĴĮæ²»çĸĹ": 5059,
      "æĸĩä»¶": 5060,
      "å¿ĥçĲĨåŃ¦": 5061,
      "æīĵéĢł": 5062,
      "å½¢çļĦ": 5063,
      "éĩĳå±ŀ": 5064,
      "äºļæ´²": 5065,
      "æľīéĻĲ": 5066,
      "æĶ¾æĿ¾èº«å¿ĥ": 5067,
      "ä½Ĩå®ĥ": 5068,
      "åĴĮå»ºè®®": 5069,
      "æµħ": 5070,
      "åıĮæĸ¹": 5071,
      "é¢Ī": 5072,
      "çĽ¸æ¯Ķ": 5073,
      "æľīäºĽäºº": 5074,
      "çľŁæĺ¯": 5075,
      "ä»¥æıĲé«ĺ": 5076,
      "è£Ĥ": 5077,
      "çļĦè¯Ŀé¢ĺ": 5078,
      "èĥ½å¤Łå¸®åĬ©": 5079,
      "æĦıè§ģ": 5080,
      "ä»¥ä¸ĭæĸĩç«ł": 5081,
      "æ½®æµģ": 5082,
      "åĪ¶åĵģ": 5083,
      "åĲĪå¹¶": 5084,
      "è¼": 5085,
      "ç¨į": 5086,
      "æıĲä¾ĽæĽ´": 5087,
      "å®īéĿĻ": 5088,
      "çº¢èī²çļĦ": 5089,
      "ç¨¿": 5090,
      "æ¯Ķåĸ»": 5091,
      "èĥ½ä¸įèĥ½": 5092,
      "ä¸įä»ħä»ħ": 5093,
      "ä»ģ": 5094,
      "çļĦç¾İä¸½": 5095,
      "å¹¶è§£éĩĬ": 5096,
      "æħİ": 5097,
      "ä¸Ģéģĵ": 5098,
      "å¤©æ°Ķé¢ĦæĬ¥": 5099,
      "90": 5100,
      "çĶ»éĿ¢": 5101,
      "æľĢå¤ļ": 5102,
      "èĦĨ": 5103,
      "åıįä¹īè¯į": 5104,
      "éĵº": 5105,
      "å¨ľ": 5106,
      "åĹ¯": 5107,
      "éĿ¢è¯ķ": 5108,
      "ç©¿è¶Ĭ": 5109,
      "å¤§åľ°": 5110,
      "æĸ¯åĿ¦": 5111,
      "Ġäººå·¥æĻºèĥ½": 5112,
      "æľ¬èº«": 5113,
      "åį¢": 5114,
      "æł¸å¿ĥ": 5115,
      "åĽŀåĪ°": 5116,
      "æİ¥è§¦": 5117,
      "èī³": 5118,
      "åĪ©æ¶¦": 5119,
      "çħİ": 5120,
      "åľĭ": 5121,
      "æķ°ä¸º": 5122,
      "éī": 5123,
      "å®ŀéĻħä¸Ĭ": 5124,
      "ä¸īè§Ĵ": 5125,
      "çĪ±çļĦ": 5126,
      "çĥŃéĩı": 5127,
      "ä¹Ĳè¶£": 5128,
      "é¹ħ": 5129,
      "éĺĲè¿°": 5130,
      "æĺ¯ç¾İåĽ½": 5131,
      "åħ¨åĽ½": 5132,
      "åĩĨç¡®çļĦ": 5133,
      "åĨłåĨĽ": 5134,
      "èīºæľ¯å®¶": 5135,
      "å°Ĭæķ¬çļĦ": 5136,
      "åľ°ä½į": 5137,
      "or": 5138,
      "çĶŁåĬ¨": 5139,
      "åįıä½ľ": 5140,
      "åİĨåı²ä¸Ĭ": 5141,
      "èµ·æºĲ": 5142,
      "ãĢĤâĢľ": 5143,
      "æĿ¥çļĦ": 5144,
      "å°¼äºļ": 5145,
      "åĨ²çªģ": 5146,
      "çİ»": 5147,
      "æ¶¯": 5148,
      "åįĹæŀģ": 5149,
      "æķ°æį®çļĦ": 5150,
      "ç²¾å½©": 5151,
      "èĩªçĦ¶çİ¯å¢ĥ": 5152,
      "éĿ©åĳ½": 5153,
      "éħįæĸĻ": 5154,
      "éªĳèĩªè¡Įè½¦": 5155,
      "çĶ³è¯·": 5156,
      "å¿ĥä¸Ń": 5157,
      "çī¹æĢ§": 5158,
      "çŃīæĬĢæľ¯": 5159,
      "éļ¾å¿ĺ": 5160,
      "æĸĩæ¡ĪçĶŁæĪĲ": 5161,
      "æ¬º": 5162,
      "è¯Ńä¹ī": 5163,
      "å¸¦æľī": 5164,
      "ä¸Ģå®ļçļĦ": 5165,
      "è½¬åĮĸä¸º": 5166,
      "æĿ¥å¸®åĬ©": 5167,
      "æ³ī": 5168,
      "è¡¨æł¼": 5169,
      "å¾ĪæĬ±æŃī": 5170,
      "çļĦæķĻèĤ²": 5171,
      "ä½ĵç³»": 5172,
      "å½ĵåľ°çļĦ": 5173,
      "æīĵç®Ĺ": 5174,
      "å¼Ģå±ķ": 5175,
      "å°ıåŀĭ": 5176,
      "åħ¬å¼ı": 5177,
      "ä½©": 5178,
      "æĹħç¨ĭ": 5179,
      "æ°ĳæĹı": 5180,
      "è¿Ļè¡¨æĺİ": 5181,
      "çļĦæĬķèµĦ": 5182,
      "æĹ¥å¸¸çĶŁæ´»ä¸Ń": 5183,
      "é¢Ħè®¢": 5184,
      "æĪĳæİ¨èįĲ": 5185,
      "æľīä»»ä½ķ": 5186,
      "åįĩé«ĺ": 5187,
      "ä»Ĭå¤©å¤©æ°Ķ": 5188,
      "çĸ²åĬ³": 5189,
      "åłĨ": 5190,
      "è°ľ": 5191,
      "å¾Īä¸įéĶĻ": 5192,
      "åīįæıĲ": 5193,
      "èĩªåĬ¨é©¾é©¶æ±½è½¦": 5194,
      "åľŁåľ°": 5195,
      "åĴĮäººç±»": 5196,
      "ç´§æĢ¥": 5197,
      "çĳ°": 5198,
      "æŃ¥è¡Į": 5199,
      "åľ¨æĪĳ": 5200,
      "åį³å°Ĩ": 5201,
      "å¼Ĥå¸¸": 5202,
      "éī´": 5203,
      "æĴĳ": 5204,
      "åħ¨çĲĥèĮĥåĽ´åĨħ": 5205,
      "äººéĻħ": 5206,
      "çĴĥ": 5207,
      "æľªæĿ¥åıĳå±ķ": 5208,
      "åĴĮæĹ¶éĹ´": 5209,
      "å¤¹": 5210,
      "2022": 5211,
      "æĪĳæŃ£åľ¨": 5212,
      "çº¦ä¸º": 5213,
      "åİŁåı¥": 5214,
      "ä¸Ģåı¥": 5215,
      "å¾Īæ£Ĵ": 5216,
      "èĬĤèĥ½": 5217,
      "å¯ĮåĲ«": 5218,
      "çĮľ": 5219,
      "åĽŀå¤į": 5220,
      "ä¼ļæľī": 5221,
      "éĻ¶": 5222,
      "æľĢéĩįè¦ģçļĦ": 5223,
      "è¡Ģåİĭ": 5224,
      "åĮĸçŁ³": 5225,
      "äº«çĶ¨": 5226,
      "èº«è¾¹": 5227,
      "ä¾£": 5228,
      "èµİ": 5229,
      "æĪĲåĬŁåľ°": 5230,
      "çļĦåħ³éĶ®è¯į": 5231,
      "çģµæĦŁ": 5232,
      "ä¸įå¾Ĺ": 5233,
      "åı¯ä»¥å¾ĹåĪ°": 5234,
      "æ¢°": 5235,
      "æħĪ": 5236,
      "è¡Ģç®¡": 5237,
      "ç®ĢçŁŃçļĦ": 5238,
      "ä»¥å¸®åĬ©": 5239,
      "æ¡Īä»¶": 5240,
      "åĽŀå½Ĵ": 5241,
      "ç©ĨæľĹ": 5242,
      "ä¼ĺç§ĢçļĦ": 5243,
      "çĽ¸åºĶçļĦ": 5244,
      "æľįåĬ¡åĳĺ": 5245,
      "ä»£æĽ¿": 5246,
      "æĺİåªļ": 5247,
      "æĪĳå»ºè®®": 5248,
      "è¿Ĳè¾ĵ": 5249,
      "èµ¶": 5250,
      "åŁºäºİä»¥ä¸Ĭ": 5251,
      "ä½ĵçİ°": 5252,
      "éģ¥": 5253,
      "ç©ĨæľĹçİĽ": 5254,
      "æĵħéķ¿": 5255,
      "æ´»åĬĽ": 5256,
      "çº¢æ¥¼": 5257,
      "å¤§è±¡": 5258,
      "è¿Ļä»½": 5259,
      "åĩºåıĳ": 5260,
      "åĩºçİ°äºĨ": 5261,
      "é¼»": 5262,
      "ä¸ŃåĽ½çļĦ": 5263,
      "æĻ´æľĹ": 5264,
      "æĪĳä¸įèĥ½": 5265,
      "åŃĻ": 5266,
      "500": 5267,
      "åĸľæ¬¢çļĦ": 5268,
      "çļĦæ°ĽåĽ´": 5269,
      "å¦Ĩ": 5270,
      "å¾Īå¿«": 5271,
      "æĦĪ": 5272,
      "æ³°åĿ¦": 5273,
      "ç¤ºä¾ĭ": 5274,
      "åı¯è¡Į": 5275,
      "ä¸ªæľĪ": 5276,
      "å¤±æľĽ": 5277,
      "éĢļä¿¡": 5278,
      "æİ¥ç§į": 5279,
      "éĢłæĪĲäºĨ": 5280,
      "æľīå®³": 5281,
      "å®¾è¯Ń": 5282,
      "å¤§çĨĬçĮ«": 5283,
      "çļĦç´": 5284,
      "åı¯ä»¥å¸®åĬ©ä½ł": 5285,
      "ä¸įèµ·": 5286,
      "çĽ¸åħ³ä¿¡æģ¯": 5287,
      "åı¯ä»¥ä¸º": 5288,
      "é¢ĨåŁŁçļĦåºĶçĶ¨": 5289,
      "å¯ĴåĨ·": 5290,
      "è¿Ļä¹Ł": 5291,
      "æıĲåīį": 5292,
      "éģµå¾ª": 5293,
      "å¥¥è¿Ĳä¼ļ": 5294,
      "æķ°çĻ¾": 5295,
      "çĶµè§Ĩåī§": 5296,
      "åľ°åĽ¾": 5297,
      "æ©ĺ": 5298,
      "æ¯ģ": 5299,
      "éĻĮ": 5300,
      "ç©ĨæľĹçİĽå³°": 5301,
      "åįĵ": 5302,
      "ç²¾åĬĽ": 5303,
      "æŁĲç§į": 5304,
      "æļĹç¤º": 5305,
      "çļĦçĹħ": 5306,
      "è«": 5307,
      "çļĦæ¤": 5308,
      "åıĹä¼¤": 5309,
      "åĴĮåģ¥åº·": 5310,
      "æĪĳä»¬å¿ħé¡»": 5311,
      "åĲĪæ³ķ": 5312,
      "åı¯èĥ½çļĦ": 5313,
      "åŃ¦ä¹łç¼ĸç¨ĭ": 5314,
      "å°¼åħĭåı·": 5315,
      "å¿ĺè®°": 5316,
      "ä¹ŁéĿŀå¸¸": 5317,
      "çĽĪ": 5318,
      "æķ°åŃĹåĮĸ": 5319,
      "æī«": 5320,
      "çļĦçģµ": 5321,
      "éķ¿åŁİ": 5322,
      "è´¾": 5323,
      "ä¼Ĺå¤ļ": 5324,
      "è¯Ĺäºº": 5325,
      "æĻ®åıĬ": 5326,
      "åı¯èĥ½éľĢè¦ģ": 5327,
      "çļĦæĻ¯çĤ¹": 5328,
      "æ¸ħæ¥ļ": 5329,
      "åİ¨æĪ¿": 5330,
      "æĸĳ": 5331,
      "è¯·æ±Ĥ": 5332,
      "å°¿çĹħ": 5333,
      "æ¯ıåĳ¨": 5334,
      "çĥŃçĪ±": 5335,
      "åĪ¶æĪĲ": 5336,
      "è°·æŃĮ": 5337,
      "æĸĩæ¡£": 5338,
      "åĬŀåħ¬å®¤": 5339,
      "æĪĳè¿ĺ": 5340,
      "åŃ¦èĢħ": 5341,
      "å¤·": 5342,
      "åĮºåĿĹéĵ¾æĬĢæľ¯": 5343,
      "çļĦæĢ»ç»ĵ": 5344,
      "äºĭé¡¹": 5345,
      "æľºåľº": 5346,
      "åİĨç¨ĭ": 5347,
      "80": 5348,
      "çļĦåĲįåŃĹ": 5349,
      "åħģ": 5350,
      "çŃīåĽłç´ł": 5351,
      "çļĦæĶ¶": 5352,
      "åľ¨éĤ£éĩĮ": 5353,
      "å¼ºå¤§çļĦ": 5354,
      "æ°§æ°Ķ": 5355,
      "è°¢è°¢ä½ł": 5356,
      "å¾®é£İ": 5357,
      "ä»¥ä¸ĭæĺ¯ä¸ĢäºĽ": 5358,
      "æĮĩåįĹ": 5359,
      "æĪĳæĥ³è¦ģ": 5360,
      "æ³°åĿ¦å°¼åħĭåı·": 5361,
      "é¥¼å¹²": 5362,
      "å¤§è§Ħæ¨¡": 5363,
      "å§Ĳ": 5364,
      "çİ»çĴĥ": 5365,
      "è¾Ľ": 5366,
      "çļĦçŁŃæĸĩ": 5367,
      "æĺ¯è°ģ": 5368,
      "éĩİçĶŁåĬ¨çī©": 5369,
      "åľ¨è¿Ļä¸ªåı¥åŃĲä¸Ń": 5370,
      "çº¢æ¥¼æ¢¦": 5371,
      "çĶ¨åĵģ": 5372,
      "çĲĨå¿µ": 5373,
      "éĽ¾": 5374,
      "çļĦæŃ¥éª¤": 5375,
      "çļĦåĲĮæĹ¶": 5376,
      "éĩİé¤Ĳ": 5377,
      "çļĦæĢ§èĥ½": 5378,
      "æµ´": 5379,
      "è§£çŃĶ": 5380,
      "åĸ·": 5381,
      "æĳĦæ°ı": 5382,
      "éĹ®çŃĶ": 5383,
      "å¤ļåħĥ": 5384,
      "çıłç©ĨæľĹçİĽå³°": 5385,
      "çļĦæİ¢": 5386,
      "çĶ³åħĭ": 5387,
      "æĿ°åħĭ": 5388,
      "æ³½": 5389,
      "èĤĸçĶ³åħĭ": 5390,
      "èĢģé¼ł": 5391,
      "çļĦæķĳ": 5392,
      "ä¸Ģç¯ĩåħ³äºİ": 5393,
      "è¿ľç¨ĭ": 5394,
      "ä¸ŃçļĦåħ³éĶ®è¯į": 5395,
      "åį±å®³": 5396,
      "Ġ+": 5397,
      "ä½Ĩåľ¨": 5398,
      "æ¶ĪéĻ¤": 5399,
      "è¾£æ¤Ĵ": 5400,
      "çĶµåĻ¨": 5401,
      "å·¥ä½ľæķĪçİĩ": 5402,
      "æľīçĶ¨": 5403,
      "ç»ĦæĪĲéĥ¨åĪĨ": 5404,
      "åĩºéĹ¨": 5405,
      "å¯º": 5406,
      "ä¼ı": 5407,
      "åĪ¶åº¦": 5408,
      "çļĦçī¹å¾ģ": 5409,
      "å¤Ħäºİ": 5410,
      "æĿ¥åĪ°": 5411,
      "èĥ½å¤Łåľ¨": 5412,
      "çĶ·å£«": 5413,
      "æ³Ħ": 5414,
      "åĩºåİ»": 5415,
      "br": 5416,
      "åĲİæŀľ": 5417,
      "ä¼ŀ": 5418,
      "çĸ¼": 5419,
      "åī²": 5420,
      "ä»ĸåĢĳ": 5421,
      "æķĻåŃ¦": 5422,
      "ç³ĸå°¿çĹħ": 5423,
      "ä¹Ļ": 5424,
      "å®ļä½į": 5425,
      "èħ°": 5426,
      "åĴĮè¡Įä¸º": 5427,
      "ä¸ºä¸»": 5428,
      "æ¸©é¦¨": 5429,
      "æĮĸæİĺ": 5430,
      "æĪĳæĺ¨å¤©": 5431,
      "æµĵéĥģ": 5432,
      "çļĦä½ľçĶ¨": 5433,
      "å¯¼èĩ´äºĨ": 5434,
      "ç¾İåĳ³çļĦ": 5435,
      "å®ĥåľ¨": 5436,
      "æľŁæľĽ": 5437,
      "æĶ¹æŃ£": 5438,
      "ä¸įå°ĳ": 5439,
      "éľį": 5440,
      "¡èĲĿåįľ": 5441,
      "èĥ¡èĲĿåįľ": 5442,
      "è°¢è°¢ä½łçļĦ": 5443,
      "æľĢè¿ĳçļĦ": 5444,
      "å¤ķ": 5445,
      "ç³Ĭ": 5446,
      "æĺ¨æĻļ": 5447,
      "åįıè°ĥ": 5448,
      "å¾Īå¤§çļĦ": 5449,
      "ç²¾ç¡®": 5450,
      "çĲĥéĺŁ": 5451,
      "èĢĮä¸į": 5452,
      "ä¸Ģèµ·åİ»": 5453,
      "è¿ĩäºİ": 5454,
      "å°ıæĺİçļĦ": 5455,
      "æĦŁæ¿Ģ": 5456,
      "ç»¼ä¸Ĭ": 5457,
      "äº¦": 5458,
      "åĮ»çĸĹè¡Įä¸ļ": 5459,
      "æ¢¨": 5460,
      "éĿ¢ä¸Ĭ": 5461,
      "æ°ĽåĽ´": 5462,
      "å·²çŁ¥": 5463,
      "åı¤è¯Ĺç»ŃåĨĻ": 5464,
      "æ³¥": 5465,
      "è¿Ļä¸ªäºº": 5466,
      "çłĶç©¶äººåĳĺ": 5467,
      "é¥®çĶ¨": 5468,
      "å¤º": 5469,
      "æĹłè®ºæĺ¯": 5470,
      "åįıåĬ©": 5471,
      "çľŁæŃ£çļĦ": 5472,
      "çĥĤ": 5473,
      "æ¥Ń": 5474,
      "åĸľåī§": 5475,
      "ï¼ģâĢĿ": 5476,
      "æĭĸ": 5477,
      "çĽĨ": 5478,
      "åĨ¬å¤©": 5479,
      "æĺĨ": 5480,
      "æ¡Īä¾ĭ": 5481,
      "æĹ±": 5482,
      "å¹³åĿĩåĪĨç»Ļ": 5483,
      "çİ°åľº": 5484,
      "åĲģ": 5485,
      "ä¸ĬäºĨ": 5486,
      "ç§ĭåŃ£": 5487,
      "çĭ®åŃĲ": 5488,
      "æĻ¶": 5489,
      "è®ĵ": 5490,
      "è¿ĻäºĽä¿¡æģ¯": 5491,
      "æ¦Ħ": 5492,
      "è¯·ä¸º": 5493,
      "æĦŁçŁ¥": 5494,
      "æ¿Ģåıĳ": 5495,
      "å§ĭç»Ī": 5496,
      "åĩıç¼ĵ": 5497,
      "æĪĳä»Ĭå¤©": 5498,
      "è¶ħçº§": 5499,
      "åıł": 5500,
      "ç·": 5501,
      "èĩ³åħ³éĩįè¦ģ": 5502,
      "åĬ£": 5503,
      "çĶŁæ´»çļĦ": 5504,
      "åģļæ³ķ": 5505,
      "Ħæ¦Ħ": 5506,
      "çļĦåĬĽéĩı": 5507,
      "çİ¯å¢ĥéĹ®é¢ĺ": 5508,
      "éĢīæĭ©ä¸Ģä¸ª": 5509,
      "éĤ¦": 5510,
      "ä¼ĺåħĪ": 5511,
      "æĥ§": 5512,
      "çļĦå£°éŁ³": 5513,
      "é¥±": 5514,
      "éĢĹåı·": 5515,
      "çĲĨæĥ³": 5516,
      "åĪĽéĢłåĬĽ": 5517,
      "æĪĳåİ»": 5518,
      "é¹¿": 5519,
      "çļĦèĬ±": 5520,
      "å¼¦": 5521,
      "ä½ľä¸ļ": 5522,
      "æįŁå¤±": 5523,
      "åĩºä¸Ģä¸ª": 5524,
      "ä¿ĿæĬ¤æĪĳä»¬çļĦ": 5525,
      "æ§": 5526,
      "å·¥ä½ľåĴĮ": 5527,
      "ä¸ĵæ³¨äºİ": 5528,
      "âĦ": 5529,
      "æĸĩç«łä¸ŃæıĲåĪ°": 5530,
      "ä¸įå¤Ł": 5531,
      "æŁľ": 5532,
      "åıĻ": 5533,
      "ä¹°äºĨä¸Ģ": 5534,
      "åįİçĽĽ": 5535,
      "å¯ĵ": 5536,
      "æĥħå¢ĥ": 5537,
      "çī©èģĶç½ĳ": 5538,
      "å¥¶éħª": 5539,
      "æĿ¨": 5540,
      "åļ": 5541,
      "æ»ļ": 5542,
      "è®¾è®¡ä¸Ģä¸ª": 5543,
      "å®¶åĽŃ": 5544,
      "æī©å±ķ": 5545,
      "åı¤åħ¸": 5546,
      "è¿ĲåĬ¨åĳĺ": 5547,
      "åĬłçĥŃ": 5548,
      "åĩºèī²çļĦ": 5549,
      "ä¹ĭæĹħ": 5550,
      "ä¸įèī¯": 5551,
      "æĶĢ": 5552,
      "åıĹåĪ°äºĨ": 5553,
      "æĻļé¤Ĳ": 5554,
      "éĢļè¿ĩå¯¹": 5555,
      "âĢ¦âĢ¦": 5556,
      "èģĮåľº": 5557,
      "èĤīç±»": 5558,
      "ç§ĳåŃ¦å®¶ä»¬": 5559,
      "åįİçĽĽé¡¿": 5560,
      "éªĹ": 5561,
      "æķĻå¸Ī": 5562,
      "ç®ĢåĮĸ": 5563,
      "çĿ¡è§ī": 5564,
      "å¦»": 5565,
      "çļĦçĮ«": 5566,
      "éĢĨ": 5567,
      "éĶĻåĪ«": 5568,
      "ä¸įç¡®å®ļ": 5569,
      "å¤įæĿĤçļĦ": 5570,
      "çıįæĥľ": 5571,
      "éĶĻåĪ«åŃĹ": 5572,
      "è¿Ļä¸ªæķħäºĭ": 5573,
      "æĸ°æĬĢæľ¯": 5574,
      "è´¢å¯Į": 5575,
      "æĺ¯ä¸Ģå®¶": 5576,
      "åĩºçļĦ": 5577,
      "éĻĮçĶŁ": 5578,
      "çĩ¥": 5579,
      "âĦĥ": 5580,
      "å°ĸ": 5581,
      "ç»Ļäºº": 5582,
      "çĭ¼": 5583,
      "æĸľ": 5584,
      "çĶ¨éĢĶ": 5585,
      "çĲĨçĶ±": 5586,
      "çĽ¸å½ĵ": 5587,
      "é¡Į": 5588,
      "ä¸ĭçļĦ": 5589,
      "è¯·æł¹æį®": 5590,
      "ç«Ł": 5591,
      "æ¼«æŃ¥": 5592,
      "åĿĲåľ¨": 5593,
      "ä»ĸä»¬ä¹ĭéĹ´": 5594,
      "åĭĥ": 5595,
      "Ġ4": 5596,
      "éŃĤ": 5597,
      "æĶ¹åıĺäºĨ": 5598,
      "è®°å¾Ĺ": 5599,
      "ç¾İæĻ¯": 5600,
      "å±ıå¹ķ": 5601,
      "æĸ°éĹ»æłĩé¢ĺ": 5602,
      "å¼ºåº¦": 5603,
      "èŃ¦æĸ¹": 5604,
      "æķĮ": 5605,
      "è¿Ī": 5606,
      "æĺİäº®": 5607,
      "åı¯ä»¥çĶ¨äºİ": 5608,
      "å¾Īå¤ļäºº": 5609,
      "ä¸¤äºº": 5610,
      "æģĲæĢĸ": 5611,
      "éĹ»åĲį": 5612,
      "æııåĨĻ": 5613,
      "ä»¥åħ¶": 5614,
      "ä¸ĸçķĮåĲĦåľ°": 5615,
      "ä¸įåŃĺåľ¨": 5616,
      "it": 5617,
      "çİ°ä»£ç¤¾ä¼ļ": 5618,
      "ĠÃ·": 5619,
      "å¦Ĥä½ķåĪ¶ä½ľ": 5620,
      "åıĤæķ°": 5621,
      "åĲ¬éŁ³ä¹Ĳ": 5622,
      "æĺİçĻ½äºĨ": 5623,
      "æ³ª": 5624,
      "ĸæģ¯": 5625,
      "ä¿Ħ": 5626,
      "åģıè§ģ": 5627,
      "æľīæ°§": 5628,
      "è³ĩ": 5629,
      "æĸĩæľ¬è¿Ľè¡Į": 5630,
      "åľ°åĲį": 5631,
      "çļĦçĭ¬": 5632,
      "çļĦç¼ĸç¨ĭ": 5633,
      "å£³": 5634,
      "éĢļå¸¸ä¼ļ": 5635,
      "èĨľ": 5636,
      "åĲĦä¸ªé¢ĨåŁŁ": 5637,
      "æ¡Ĩ": 5638,
      "èħ¾": 5639,
      "å±ħä½ı": 5640,
      "å¼ķå¯¼": 5641,
      "æ²Ļåıĳ": 5642,
      "çļĦæ¡": 5643,
      "äººæĢ§": 5644,
      "åĴĮçĲĨè§£": 5645,
      "æıĲé«ĺäºĨ": 5646,
      "èĸ¯": 5647,
      "éĶĻè¿ĩ": 5648,
      "å·²æĪĲä¸º": 5649,
      "æł¹æį®èĩªå·±çļĦ": 5650,
      "æ£ĭ": 5651,
      "çŃĽ": 5652,
      "å»ºè®®åĲĹ": 5653,
      "åİŁåŃĲ": 5654,
      "åł´": 5655,
      "é£İæļ´": 5656,
      "æĿī": 5657,
      "çĭĹçļĦ": 5658,
      "è¡Įé©¶": 5659,
      "èī°": 5660,
      "çİ«": 5661,
      "åĳ¼åĲģ": 5662,
      "ãĢĤ\"<|": 5663,
      "çļĦæ²ŁéĢļ": 5664,
      "çļĦåĳ³éģĵ": 5665,
      "æ¶¨": 5666,
      "å¹²åĩĢ": 5667,
      "å°ĩ": 5668,
      "è°ĭ": 5669,
      "äºļé©¬": 5670,
      "çĤİçĥŃ": 5671,
      "ç¢ĳ": 5672,
      "å¾Īé«ĺåħ´": 5673,
      "è¡¨è¿°": 5674,
      "åĴĮä¸ªäºº": 5675,
      "å¹¿æ³ĽçļĦ": 5676,
      "åºĻ": 5677,
      "ç²®": 5678,
      "èĬĿå£«": 5679,
      "å¸¦çĿĢ": 5680,
      "åħ³éĹŃ": 5681,
      "çŃīå¤ļä¸ª": 5682,
      "æĽ´æĶ¹": 5683,
      "æİ¨è¿Ľ": 5684,
      "æŁ¿": 5685,
      "ä»İä¸Ń": 5686,
      "æĭĽèģĺ": 5687,
      "æ¯ķä¸ļ": 5688,
      "æĹ¥çĽĬ": 5689,
      "æ¿ĢçĥĪ": 5690,
      "æķ°æį®åĪĨæŀĲ": 5691,
      "æ¸©å®¤æ°Ķä½ĵæİĴæĶ¾": 5692,
      "æĪ¿å±ĭ": 5693,
      "è¿ĻäºĽéĥ½æĺ¯": 5694,
      "æĹ©æľŁ": 5695,
      "çļĦæ²Ļ": 5696,
      "ä½Ĩä¸į": 5697,
      "æĮ¯": 5698,
      "æĸĩè¨Ģ": 5699,
      "æľīæĦıä¹ī": 5700,
      "çļĦæĻ®": 5701,
      "ä½łæĺ¯": 5702,
      "ä¼Ĳ": 5703,
      "èĥľåľ°": 5704,
      "____": 5705,
      "å±Ĥæ¬¡": 5706,
      "ä¸Ģèĩ´": 5707,
      "èĺĳ": 5708,
      "åħģè®¸": 5709,
      "éĩıåŃĲåĬĽåŃ¦": 5710,
      "åĪĳ": 5711,
      "éĻªä¼´": 5712,
      "å®¢æľį": 5713,
      "è¿Ļæ®µè¯Ŀ": 5714,
      "æĪĳä»¬åľ¨": 5715,
      "æ¿ĢåĬ±": 5716,
      "çīĽä»Ķ": 5717,
      "çļĦçĬ¶æĢģ": 5718,
      "æĺĤ": 5719,
      "å¤§å¤§": 5720,
      "å©´": 5721,
      "æīİ": 5722,
      "çļĦä¾ĭåŃĲ": 5723,
      "æľĪäº®": 5724,
      "èĭ¹æŀľåħ¬åı¸": 5725,
      "ç¿ħ": 5726,
      "äºļé©¬éĢĬ": 5727,
      "at": 5728,
      "æĺ¯ä¸ĸçķĮä¸ĬæľĢ": 5729,
      "ç¥ĸ": 5730,
      "æĹ©æĻ¨": 5731,
      "æ´Ĵ": 5732,
      "æĥĳ": 5733,
      "ï¼ħ": 5734,
      "äººå·¥æĻºèĥ½æĬĢæľ¯åľ¨": 5735,
      "å¾Į": 5736,
      "çļĦæķ°åŃĹ": 5737,
      "æĺ¾å¾Ĺ": 5738,
      "å®īåħ¨åĴĮ": 5739,
      "åľ°çĲĨ": 5740,
      "æºª": 5741,
      "æľīæĹ¶åĢĻ": 5742,
      "é«ĺè´¨éĩı": 5743,
      "èĺĳèıĩ": 5744,
      "å»ºçŃĳçī©": 5745,
      "åĲĳéĩı": 5746,
      "èĥĥ": 5747,
      "åıĳéĢģ": 5748,
      "åŀĤ": 5749,
      "æĪĺæĸĹ": 5750,
      "ä¸ĢäºĽäºº": 5751,
      "æĸĩè¨Ģæĸĩ": 5752,
      "ä¿Ŀæļĸ": 5753,
      "åľ¨åĵªéĩĮ": 5754,
      "ä½Ĩä¹Ł": 5755,
      "æĨ": 5756,
      "æĢ»ä½ĵ": 5757,
      "é£İåħī": 5758,
      "ç¿Ķ": 5759,
      "çļĦå½¢å¼ı": 5760,
      "è¯Ńå¢ĥ": 5761,
      "ä¿®å¤į": 5762,
      "æ¾³": 5763,
      "åģ¥èº«æĪ¿": 5764,
      "éĿ¢ä¸´çĿĢ": 5765,
      "è¯¥åı¥åŃĲ": 5766,
      "æ©Ħæ¦Ħ": 5767,
      "çŃīäºİ": 5768,
      "å¹¶è¾ĵåĩº": 5769,
      "æķ°æį®åĴĮ": 5770,
      "çļĦæķĳèµİ": 5771,
      "æĬĢæľ¯çļĦåıĳå±ķ": 5772,
      "å¸ĤåľºèĲ¥éĶĢ": 5773,
      "æŀģç«¯å¤©æ°Ķ": 5774,
      "åľ¨ç»Ļå®ļçļĦ": 5775,
      "å²ģçļĦ": 5776,
      "é½¿": 5777,
      "èĵĿèī²çļĦ": 5778,
      "çİ«çĳ°": 5779,
      "æĪĳä»¬ä¼ļ": 5780,
      "çļĦæŃĮæĽ²": 5781,
      "å¤ĩåıĹ": 5782,
      "åĳĪçİ°åĩº": 5783,
      "èĿ´": 5784,
      "åĽ¾æ¡Ī": 5785,
      "æķħäºĭæĥħèĬĤ": 5786,
      "èĿ´èĿ¶": 5787,
      "æĶ¿æ²»": 5788,
      "è®©è®¡ç®Ĺæľº": 5789,
      "æĪĳä»¬åı¯ä»¥çĶ¨": 5790,
      "åĩºçīĪ": 5791,
      "å²Ĺ": 5792,
      "åĴĮçİ¯å¢ĥ": 5793,
      "æĪĺçķ¥": 5794,
      "äººå·¥æĻºèĥ½åĴĮ": 5795,
      "éĢļçŁ¥": 5796,
      "çļĦåľºæĻ¯": 5797,
      "æł¹æį®æłĩé¢ĺ": 5798,
      "ç¢³æİĴæĶ¾": 5799,
      "äºīè®®": 5800,
      "éĤ»": 5801,
      "åĪĨåĪ«æĺ¯": 5802,
      "ä¹Łèĥ½": 5803,
      "\"ãĢĤ": 5804,
      "ç«ĭåį³": 5805,
      "ç»ıèĲ¥": 5806,
      "è®¾å®ļ": 5807,
      "çļĦåĲįç§°": 5808,
      "çĪ¶æ¯į": 5809,
      "åįıè®®": 5810,
      "éĺ¿çĶĺ": 5811,
      "å¿«éĢŁåıĳå±ķ": 5812,
      "çĺ¦": 5813,
      "ç»¼ä¸ĬæīĢè¿°": 5814,
      "ç»³": 5815,
      "çĭ±": 5816,
      "åıĳè¡¨": 5817,
      "è¤": 5818,
      "åĲįåı«": 5819,
      "åºŁå¼ĥ": 5820,
      "æıŃç¤º": 5821,
      "ç§Ĵ": 5822,
      "èĥĸ": 5823,
      "éĶħä¸Ń": 5824,
      "å»ºéĢł": 5825,
      "ä¸Ģæ®µå¯¹è¯Ŀ": 5826,
      "ä¸ªä½ĵ": 5827,
      "æ¢ģ": 5828,
      "çĤī": 5829,
      "çļĦåĴĸåķ¡": 5830,
      "æ°¢": 5831,
      "æķ°æį®ä¸Ń": 5832,
      "åıĳçİ°äºĨ": 5833,
      "å¼ºåĮĸ": 5834,
      "éĢĶå¾Ħ": 5835,
      "ä½Ĩæĺ¯æĪĳ": 5836,
      "çļĦæĬ¥": 5837,
      "æĪĸç¼º": 5838,
      "å¤ªå¤ļ": 5839,
      "å¥½åĥı": 5840,
      "ç´łé£Ł": 5841,
      "åĲİçļĦåı¥åŃĲ": 5842,
      "å®ŀä½ĵè¯ĨåĪ«": 5843,
      "ç§ĳå¹»å°ıè¯´": 5844,
      "æĪª": 5845,
      "èĤĸçĶ³åħĭçļĦæķĳèµİ": 5846,
      "ä¸Ģåħ±": 5847,
      "æĪĲçĨŁ": 5848,
      "çŁ¶": 5849,
      "çļĦæ°ĶåĢĻ": 5850,
      "æĽ¿æį¢ä¸º": 5851,
      "æĽ´æŃ£": 5852,
      "æĭĴ": 5853,
      "æĴ°åĨĻ": 5854,
      "æĪĳåĴĮ": 5855,
      "ä¼ĺç¾İ": 5856,
      "å½»": 5857,
      "çĶµåŃĲåķĨåĬ¡": 5858,
      "å¹¼": 5859,
      "å¾¡": 5860,
      "æ²ĥ": 5861,
      "æ©Ł": 5862,
      "çİ¯ä¿ĿçļĦ": 5863,
      "çļĦæķ°åŃ¦": 5864,
      "èĥ¶": 5865,
      "åĴĮç®¡çĲĨ": 5866,
      "èħĬ": 5867,
      "ç»ĻæĪĳæİ¨èįĲ": 5868,
      "åĬłå·¥": 5869,
      "æĵ¦": 5870,
      "æĦıå¤ĸ": 5871,
      "åľ°åĿĢ": 5872,
      "å¤±ä¸ļ": 5873,
      "è±ĨèħĲ": 5874,
      "éŀĭåŃĲ": 5875,
      "çĶ¢": 5876,
      "å½¢æĢģ": 5877,
      "éĽķ": 5878,
      "çļĦåħ³éĶ®ä¿¡æģ¯": 5879,
      "å¼ķèµ·äºĨ": 5880,
      "æĳĦæ°ıåº¦": 5881,
      "äºĳè®¡ç®Ĺ": 5882,
      "ä¸Ģä¸ĭè¿Ļç¯ĩæĸĩç«ł": 5883,
      "æĸ°åĨł": 5884,
      "è¾ĥä¸º": 5885,
      "äººåĴĮ": 5886,
      "éĿŀå¸¸éĢĤåĲĪ": 5887,
      "å®¶éĩĮ": 5888,
      "æĸĩèīº": 5889,
      "è®©äººæĦŁåĪ°": 5890,
      "äººæķ°": 5891,
      "åŀ«": 5892,
      "æĪĸæĺ¯": 5893,
      "çī¹å®ļçļĦ": 5894,
      "æĦģ": 5895,
      "éĢıæ°Ķ": 5896,
      "è¯·ä»İ": 5897,
      "è¯·ä¸ºæĪĳ": 5898,
      "çĶµå½±åĲįç§°": 5899,
      "çĽĸèĮ¨": 5900,
      "åıĺéĩı": 5901,
      "çļĦä¸įåĲĮ": 5902,
      "å¿ĥèĦıçĹħ": 5903,
      "ob": 5904,
      "åıĺå¾Ĺè¶ĬæĿ¥è¶Ĭ": 5905,
      "çļĦæİĴæĶ¾": 5906,
      "æģ°": 5907,
      "çĥ¤ç®±": 5908,
      "éĢĤçĶ¨äºİ": 5909,
      "èħ¹": 5910,
      "åŁºäºİä»¥ä¸ĭ": 5911,
      "å§ľ": 5912,
      "èµ°äºĨ": 5913,
      "çļĦæĶ¿": 5914,
      "é«ĺçļĦå±±å³°": 5915,
      "å°ıæĺİåĴĮå°ıçº¢": 5916,
      "èĻ¾": 5917,
      "åı¯ä»¥ä»İ": 5918,
      "æİ¥è¿ĳ": 5919,
      "æĸ°æ¬¾": 5920,
      "æĪĲä¸ºä¸Ģä¸ª": 5921,
      "199": 5922,
      "ä¼ģä¸ļå®¶": 5923,
      "--": 5924,
      "åŁºäºİä»¥ä¸Ĭè¿Ļæ®µæĸĩæľ¬": 5925,
      "æ¯ıä¸ªäººéĥ½åºĶè¯¥": 5926,
      "ä¹ĭä¸Ń": 5927,
      "éĶ»çĤ¼èº«ä½ĵ": 5928,
      "çļĦè¡¨çİ°": 5929,
      "åĿļå®ļ": 5930,
      "è¿Ļæĺ¯ä¸Ģéĥ¨": 5931,
      "æķ°æį®è¿Ľè¡Į": 5932,
      "æ²¡æľīä»»ä½ķ": 5933,
      "æº¯": 5934,
      "åĮ»åŃ¦å½±åĥı": 5935,
      "ä¸ĭåĳ¨": 5936,
      "åĩıå°ĳä½¿çĶ¨": 5937,
      "åĩıèĤ¥": 5938,
      "çļĦä¸ľè¥¿": 5939,
      "äººä»¬å¯¹": 5940,
      "åĩłç§į": 5941,
      "éĺ³åħīæĺİåªļ": 5942,
      "çħ§é¡¾": 5943,
      "çļĦæłĳ": 5944,
      "éĶĻè¯¯è¿Ľè¡Į": 5945,
      "çĶľçĤ¹": 5946,
      "Ġä½ł": 5947,
      "çļĦæ¤į": 5948,
      "å¿ĹæĦ¿": 5949,
      "åĽºå®ļ": 5950,
      "çļĦä¸»è¦ģè§ĤçĤ¹æĺ¯": 5951,
      "åįļå®¢": 5952,
      "éŁ§": 5953,
      "ç®ĢåİĨ": 5954,
      "æ·±è¿ľçļĦå½±åĵį": 5955,
      "ä¸įåı¯æĪĸç¼º": 5956,
      "å¦ĤæŀľæĪĳä»¬": 5957,
      "è¢«è§Ĩä¸º": 5958,
      "çļĦæ³¨": 5959,
      "åħ´è¶£çĪ±å¥½": 5960,
      "è¿ĳæľŁ": 5961,
      "è¯¦ç»ĨçļĦ": 5962,
      "åĴĮç»ıæµİ": 5963,
      "åĳ¨æľŁ": 5964,
      "æĮĩä»¤": 5965,
      "åĨħçļĦ": 5966,
      "ç»Ļå®ļä¸Ģç¯ĩæĸĩç«ł": 5967,
      "ç¾İå¦Ļ": 5968,
      "è¸ı": 5969,
      "çĶŁæĢģçİ¯å¢ĥ": 5970,
      "ä¹Łå°Ĩ": 5971,
      "åĴĮåŃ¦ä¹ł": 5972,
      "çļĦäººçī©": 5973,
      "å¡ĳæĸĻè¢ĭ": 5974,
      "æĢ§æł¼": 5975,
      "èĶ¬èıľåĴĮ": 5976,
      "ðŁ": 5977,
      "çļĦæľĢä½³": 5978,
      "è¡¥åħħ": 5979,
      "çªģçł´": 5980,
      "æĿ¥åĩıå°ĳ": 5981,
      "åħ½": 5982,
      "è¯·å¸®æĪĳ": 5983,
      "è¯Ī": 5984,
      "åľ¨åħ¬åĽŃéĩĮ": 5985,
      "åıĸæ¶Ī": 5986,
      "èªīä¸º": 5987,
      "æľ¬è´¨": 5988,
      "åĪĽéĢłä¸Ģä¸ª": 5989,
      "èĥ¡æ¤Ĵ": 5990,
      "èĢĥèĻĳåĪ°": 5991,
      "ä½łèĥ½åĳĬè¯īæĪĳ": 5992,
      "åİĺç±³": 5993,
      "å¾®ç¬ĳ": 5994,
      "ç®¡çĲĨåĴĮ": 5995,
      "åĮħå®¹": 5996,
      "é¸ŁåĦ¿": 5997,
      "ç³Ł": 5998,
      "ä»¥åĲİ": 5999,
      "è§Ĵèī²ä»ĭç»į": 6000,
      "çļĦç¤¼": 6001,
      "ç¬¬ä¸Ģæ¬¡": 6002,
      "åĴĮæĬĢèĥ½": 6003,
      "èĨĢ": 6004,
      "çĶµå½±è¯Ħè®º": 6005,
      "ç§ĳæĬĢåħ¬åı¸": 6006,
      "åľŁè±Ĩ": 6007,
      "ä»¥åīį": 6008,
      "å¤ļæ¬¡": 6009,
      "çļĦæ³ķå¾ĭ": 6010,
      "å¥³åŃĲ": 6011,
      "åĬłå¯Ĩ": 6012,
      "çļĦæ¸©åº¦": 6013,
      "åĩłä¹İ": 6014,
      "åı¯ä»¥æıĲä¾Ľ": 6015,
      "æĤłä¹ħ": 6016,
      "çī©æµģ": 6017,
      "æĿīçŁ¶": 6018,
      "éĻĪè¿°åı¥": 6019,
      "æľ¨æĺŁ": 6020,
      "çį": 6021,
      "çļĦåŃ£èĬĤ": 6022,
      "åīĳ": 6023,
      "èĥĨ": 6024,
      "å¯¹å¾ħ": 6025,
      "å¨ģå¤·": 6026,
      "è¿Ļä¸ªè¯į": 6027,
      "èĪį": 6028,
      "è¾ĥé«ĺ": 6029,
      "å¤ıå¨ģå¤·": 6030,
      "åı¯ä»¥å¸®åĬ©åĮ»çĶŁ": 6031,
      "ä¼į": 6032,
      "æ¡ĮåŃĲ": 6033,
      "çļĦæµ·æ»©": 6034,
      "å®½æĿ¾": 6035,
      "ä»Ķç»Ĩ": 6036,
      "ä¼ĺéĽħ": 6037,
      "çļĦç¨ĭåºı": 6038,
      "ç»ŃåĨĻåı¤è¯Ĺ": 6039,
      "é©¬æĭī": 6040,
      "å»ºç«ĭä¸Ģä¸ª": 6041,
      "çļĦä»£è¡¨": 6042,
      "çļĦæīĭæľº": 6043,
      "å¸ĿåĽ½": 6044,
      "éľĢè¦ģè¿Ľè¡Į": 6045,
      "æľ¯è¯Ń": 6046,
      "å¹¶ä½¿çĶ¨": 6047,
      "æĪ¿åŃĲ": 6048,
      "éĴ¢çĲ´": 6049,
      "çİĭæĺŁ": 6050,
      "ä¸Ģå°ģ": 6051,
      "ç§ĺå¯Ĩ": 6052,
      "çļĦç¬ĳ": 6053,
      "åĿļæŀľ": 6054,
      "éĥ½å¾Ī": 6055,
      "åķı": 6056,
      "å¤ļå½©": 6057,
      "å¹²æī°": 6058,
      "ä½łåı¯ä»¥å°Ŀè¯ķ": 6059,
      "å·¾": 6060,
      "åĴĮæµ·": 6061,
      "çļĦå¸®åĬ©": 6062,
      "ä¸ºæĪĳä»¬": 6063,
      "ä¸ĭä¸Ģä¸ª": 6064,
      "æ¯ıä¸Ģä¸ª": 6065,
      "åĬłåī§": 6066,
      "å¤ĸè§Ĥ": 6067,
      "åĴĮèĶ¬èıľ": 6068,
      "å®³æĢķ": 6069,
      "å¹½é»ĺ": 6070,
      "ä¸Ģæ¬¡æĢ§": 6071,
      "çīĩæ®µ": 6072,
      "åĻª": 6073,
      "åıĸåĩº": 6074,
      "æ¸ł": 6075,
      "æĭĵå±ķ": 6076,
      "å«Įçĸĳ": 6077,
      "æĹħæ¸¸æĻ¯çĤ¹": 6078,
      "åĮħåĲ«äºĨ": 6079,
      "éĩįè¦ģçļĦä½ľçĶ¨": 6080,
      "ä¸įéĶĻçļĦéĢīæĭ©": 6081,
      "åĩıåİ»": 6082,
      "åİŁæĿ¥": 6083,
      "ç¿ł": 6084,
      "åī©ä½Ļ": 6085,
      "å¤ļå¹´": 6086,
      "åĳĢ": 6087,
      "è¿ĻäºĽæĬĢæľ¯": 6088,
      "èĪªç©º": 6089,
      "å½ĵæĪĳ": 6090,
      "æ¯ıä¸ªäººçļĦ": 6091,
      "åĸĦèī¯": 6092,
      "çĸı": 6093,
      "æ¡¶": 6094,
      "ä¸įçĶ¨": 6095,
      "ä¸»åĬ¨": 6096,
      "æ¯Ķäºļ": 6097,
      "æ¯Ķå¦Ĥè¯´": 6098,
      "æĢ§è´¨": 6099,
      "åı¯è¯»": 6100,
      "ä¿ĿæĮģèº«ä½ĵåģ¥åº·": 6101,
      "åĺ´": 6102,
      "çĶ¨æĪ·çļĦ": 6103,
      "å¹¿éĺĶ": 6104,
      "å¯Ĩåº¦": 6105,
      "èĤ©": 6106,
      "æĮĩæłĩ": 6107,
      "åľ°éĵģ": 6108,
      "æĺŁæĺŁ": 6109,
      "è¿ģ": 6110,
      "å½ĵæĪĳä»¬": 6111,
      "ç»Ĩèħ»": 6112,
      "åĮĹäº¬å¸Ĥ": 6113,
      "åħ¨éĥ¨": 6114,
      "è¿Ŀåıį": 6115,
      "æľ¬å°ıè¯´": 6116,
      "çİ°çĬ¶": 6117,
      "å±ķçİ°äºĨ": 6118,
      "å¯Ħ": 6119,
      "è®©å®ĥ": 6120,
      "æĬĳéĥģ": 6121,
      "çļĦç©ºæ°Ķ": 6122,
      "ç»µ": 6123,
      "åĨ°å·Ŀ": 6124,
      "éļĨ": 6125,
      "Ġ(": 6126,
      "oo": 6127,
      "éģĹä¼ł": 6128,
      "æĮº": 6129,
      "å¤§æĪĺ": 6130,
      "åĩĨå¤ĩå¥½": 6131,
      "é¢ĳçİĩ": 6132,
      "ä¸Ĭæĺł": 6133,
      "ç¥ŀå¥ĩ": 6134,
      "æľīæ°§è¿ĲåĬ¨": 6135,
      "çļĦç¡": 6136,
      "æĢİä¹Īåģļ": 6137,
      "çļĦçł´": 6138,
      "ä»Ĭå¤©çļĦå¤©æ°Ķ": 6139,
      "è¿Ļä¸¤": 6140,
      "æĭħä»»": 6141,
      "æ¸´": 6142,
      "çĸ¾çĹħçļĦ": 6143,
      "çļĦæĢĿèĢĥ": 6144,
      "å§Ĩæĸ¯": 6145,
      "å®īåħ¨æĢ§": 6146,
      "åĪ¸": 6147,
      "ĠAI": 6148,
      "ä¸ĸçķĮä¸Ĭ": 6149,
      "èĮ«": 6150,
      "çļĦæĢĿç»´": 6151,
      "è¿ĺè¦ģ": 6152,
      "çĽ¸çŃī": 6153,
      "è¯¦ç»ĨåĽŀçŃĶ": 6154,
      "åŀĥåľ¾éĤ®ä»¶": 6155,
      "å±ķç¤ºäºĨ": 6156,
      "åĨĮ": 6157,
      "ä»£è°¢": 6158,
      "æ´ĽæĿīçŁ¶": 6159,
      "ç½²": 6160,
      "çļĦéĢŁåº¦": 6161,
      "Ja": 6162,
      "æ¶Į": 6163,
      "çĲ³": 6164,
      "çļĦæ°Ķæģ¯": 6165,
      "æĸĩæľ¬ä¸ŃçļĦåħ³éĶ®è¯į": 6166,
      "éĢīæĭ©éĢĤåĲĪ": 6167,
      "è¡°": 6168,
      "æĤ²ä¼¤": 6169,
      "æģĴæĺŁ": 6170,
      "æłĳæľ¨": 6171,
      "èı²å°Ķ": 6172,
      "æĹĹ": 6173,
      "è¯·æĢ»ç»ĵ": 6174,
      "éĹ®é¢ĺåĴĮ": 6175,
      "ç´łè´¨": 6176,
      "çļĦåħī": 6177,
      "å¿į": 6178,
      "çĨŁæĤī": 6179,
      "è¢«èªīä¸º": 6180,
      "éŁ¿": 6181,
      "ä¹ĺåĿĲ": 6182,
      "å©ļç¤¼": 6183,
      "ç¿Ĵ": 6184,
      "å®ļå¾ĭ": 6185,
      "Ġä½¿çĶ¨": 6186,
      "è®¤åı¯": 6187,
      "åį±æľº": 6188,
      "çļĦä¸Ģæ®µå¯¹è¯Ŀ": 6189,
      "å®´": 6190,
      "çļĦèĭ¹æŀľ": 6191,
      "è¡¬è¡«": 6192,
      "æ°Ľ": 6193,
      "ä¸ĬçıŃ": 6194,
      "é»Ľ": 6195,
      "çļĦèĩªçĦ¶": 6196,
      "éĿ¢æĿ¡": 6197,
      "æľĢéĢĤåĲĪ": 6198,
      "äººä»¬åľ¨": 6199,
      "70": 6200,
      "å¹³éĿĻ": 6201,
      "å®ĮæĪĲä»»åĬ¡": 6202,
      "çļĦé¢ĨåŁŁ": 6203,
      "è¿Ļæł·åı¯ä»¥": 6204,
      "çļĦåĬŁèĥ½": 6205,
      "çļĦæ¯ĶèµĽ": 6206,
      "å¦Ĥä»Ĭ": 6207,
      "ä»ĩ": 6208,
      "ä¸ĭéĿ¢çļĦæĸĩæľ¬": 6209,
      "ä»¥ä¸ĭåĩłä¸ª": 6210,
      "èĪĴéĢĤçļĦ": 6211,
      "æĺ¯ä¸ºäºĨ": 6212,
      "åľ°çĲĥä¸Ĭ": 6213,
      "çĵ¦": 6214,
      "æĸĩæľ¬åĪĨç±»": 6215,
      "åħ¶ä»ĸäºº": 6216,
      "åģļä¸ĢäºĽ": 6217,
      "çļĦå®ļä¹ī": 6218,
      "åĮ¹éħį": 6219,
      "è´·": 6220,
      "èķ´åĲ«": 6221,
      "åĩĮ": 6222,
      "å®ĥä»¬åľ¨": 6223,
      "DNA": 6224,
      "éľĢè¦ģåľ¨": 6225,
      "æī¿æĭħ": 6226,
      "åĩºçİ°åľ¨": 6227,
      "å°±èĥ½": 6228,
      "ä¹Ĳè§Ĥ": 6229,
      "è¢Ń": 6230,
      "çļĦç¾İæĻ¯": 6231,
      "éĵģå¡Ķ": 6232,
      "æ·±æ·±": 6233,
      "ç¼ĸç¨ĭè¯Ńè¨Ģ": 6234,
      "ç»ĺçĶ»": 6235,
      "æĹĭè½¬": 6236,
      "åı£åı·": 6237,
      "ç»Ŀå¯¹": 6238,
      "çļĦè§ĤçĤ¹": 6239,
      "ä¸»æ¼Ķ": 6240,
      "ä¸ªåŃĹ": 6241,
      "çĳŁ": 6242,
      "éļ¾é¢ĺ": 6243,
      "åŃ¦ä¹łæĸ°": 6244,
      "åĲİæĿ¥": 6245,
      "ç¾İåĽ½æĢ»ç»Ł": 6246,
      "åħ¶ä¸Ńä¸Ģä¸ª": 6247,
      "åĬŀæ³ķ": 6248,
      "æĭ¥åłµ": 6249,
      "åĴĮå¯¹": 6250,
      "å¯¹æĸĩæľ¬éĶĻè¯¯è¿Ľè¡Į": 6251,
      "æ¨ª": 6252,
      "åģļèµ·": 6253,
      "éĿ¢ç²ī": 6254,
      "èĢģäºº": 6255,
      "åĲ«éĩı": 6256,
      "ç»Ļä½łä¸¤ä¸ª": 6257,
      "è®©ä»ĸä»¬": 6258,
      "ç±»ä¼¼äºİ": 6259,
      "éĹ¹": 6260,
      "ä¿¡çĶ¨": 6261,
      "åĿ¡": 6262,
      "åĽłä¸ºæĪĳ": 6263,
      "åĽ´ç»ķ": 6264,
      "å¯¹è¯Ŀä¸Ń": 6265,
      "åķ¦": 6266,
      "é£İåĲ¹": 6267,
      "çĶŁæĪĲä¸Ģé¦ĸ": 6268,
      "çĶ·äºº": 6269,
      "å¹¶å¯¹": 6270,
      "æµĨ": 6271,
      "çŃīå¤ļç§į": 6272,
      "æ²³æµģ": 6273,
      "æĸĩæľ¬çºłéĶĻ": 6274,
      "AP": 6275,
      "æĢĴ": 6276,
      "çľĭçĿĢ": 6277,
      "åħ¼": 6278,
      "å¹²æĹ±": 6279,
      "ç¼ĸè¾ĳä¸ĭéĿ¢": 6280,
      "æĿľ": 6281,
      "åĴĮå°ı": 6282,
      "å¸ħ": 6283,
      "è·Łè¸ª": 6284,
      "åľĨå½¢": 6285,
      "åĴĮä½¿çĶ¨": 6286,
      "æĹĭå¾ĭ": 6287,
      "è½¨éģĵ": 6288,
      "è¿½æº¯": 6289,
      "åħĥéĴ±": 6290,
      "ä¸´åºĬ": 6291,
      "æĶ¾ç½®": 6292,
      "äººå·¥æĻºèĥ½å°Ĩ": 6293,
      "èĢĲå¿ĥ": 6294,
      "å¦ĤæŀľæĤ¨éľĢè¦ģ": 6295,
      "çĶŁæĪĲä»ĸä»¬ä¹ĭéĹ´": 6296,
      "è¦ģæ±Ĥå¯¹è¯ĿåĨħå®¹": 6297,
      "è¯¦ç»Ĩä¸°å¯Į": 6298,
      "è§Ĵèī²ä¿¡æģ¯å¦Ĥä¸ĭ": 6299,
      "ç»Ļä½łä¸¤ä¸ªè§Ĵèī²ä¿¡æģ¯å¦Ĥä¸ĭ": 6300,
      "çĶŁæĪĲä»ĸä»¬ä¹ĭéĹ´çļĦä¸Ģæ®µå¯¹è¯Ŀ": 6301,
      "è¦ģæ±Ĥå¯¹è¯ĿåĨħå®¹è¯¦ç»Ĩä¸°å¯Į": 6302,
      "éĽĩ": 6303,
      "1000": 6304,
      "æŀļ": 6305,
      "ä»¥éģ¿åħį": 6306,
      "è¾¾æĪĲ": 6307,
      "¬éĹ´": 6308,
      "æł¼å¼ı": 6309,
      "Ġä»ĸ": 6310,
      "æĶ¹éĿ©": 6311,
      "èĤĿ": 6312,
      "æľĢéĩįè¦ģçļĦæĺ¯": 6313,
      "Ġè¿Ļä¸ª": 6314,
      "ç½Ĺé©¬": 6315,
      "äºĨä¸Ģåľº": 6316,
      "èľľèľĤ": 6317,
      "æ°Ķè±¡": 6318,
      "åħ±åĲĮåĬªåĬĽ": 6319,
      "æłĩçĤ¹ç¬¦åı·": 6320,
      "æĹłæķ°": 6321,
      "æ¯Ķçī¹": 6322,
      "ç²¾èĩ´": 6323,
      "å®¢è§Ĥ": 6324,
      "çļĦæĢĿæĥ³": 6325,
      "çļĦçĤ": 6326,
      "æĢ§éĹ®é¢ĺ": 6327,
      "æ¹¾": 6328,
      "çľĭäºĨ": 6329,
      "å·²ç»ıåľ¨": 6330,
      "åĢ¡": 6331,
      "å¿ĥè¡Ģç®¡": 6332,
      "ç¿»è¯ĳæĪĲçİ°ä»£": 6333,
      "èĬĤçľģ": 6334,
      "æłĳåı¶": 6335,
      "éĢĲæŃ¥": 6336,
      "åħ¨çĲĥæ°ĶåĢĻåıĺåĮĸ": 6337,
      "çĶŁåĳ½çļĦ": 6338,
      "ç¬Ķè®°": 6339,
      "ĸæģ¯åľ°": 6340,
      "åħĭæĸ¯": 6341,
      "æľºåĻ¨åŃ¦ä¹łåĴĮ": 6342,
      "åģļä»Ģä¹Ī": 6343,
      "ä¿¡æģ¯åĴĮ": 6344,
      "åĨĽäºĭ": 6345,
      "äººå·¥æĻºèĥ½æĬĢæľ¯çļĦ": 6346,
      "ç¿»è¯ĳæĪĲæĸĩè¨Ģæĸĩ": 6347,
      "å¼¯": 6348,
      "ç»ĦæĪĲçļĦ": 6349,
      "èįīåİŁ": 6350,
      "è¿ĩæ»¤": 6351,
      "åħįè´¹": 6352,
      "ä¸Ńåįİ": 6353,
      "è®©æĤ¨": 6354,
      "çļĦæĤ": 6355,
      "ç®Ģæĺİ": 6356,
      "æĺ¯ä»Ģä¹ĪæĦıæĢĿ": 6357,
      "æľīå¤ļå°ĳ": 6358,
      "æľīäºĨ": 6359,
      "ä¸ĭåİ»": 6360,
      "å¯¦": 6361,
      "çĶŁäº§åĬĽ": 6362,
      "éĨĭ": 6363,
      "å¦ĤæŀľæĤ¨åĸľæ¬¢": 6364,
      "ç»ĵæŀĦåĴĮ": 6365,
      "å®ĿèĹı": 6366,
      "èµ¢å¾ĹäºĨ": 6367,
      "æĺ¯ä¸Ģä¸ªéĿŀå¸¸": 6368,
      "æł¹æį®ä»¥ä¸Ĭ": 6369,
      "...": 6370,
      "è¯ŃæĢģ": 6371,
      "æĪĳçĽ¸ä¿¡": 6372,
      "è¿Ļä¸ªæĸĩæľ¬": 6373,
      "ä¸ĸçķĮçļĦ": 6374,
      "ä¸įåºĶè¯¥": 6375,
      "åĳ½åĲį": 6376,
      "éħįåĲĪ": 6377,
      "åľ¨è¿Ļç§į": 6378,
      "åı¥åŃĲä¸ŃçļĦ": 6379,
      "èº«ä¸Ĭ": 6380,
      "è¿Ļç¯ĩæĸĩç«łä¸»è¦ģ": 6381,
      "åĲ¦å®ļ": 6382,
      "æĿ¥è¿Ľè¡Į": 6383,
      "å¥¹åľ¨": 6384,
      "é«ĺæ¸©": 6385,
      "èģĶçĽŁ": 6386,
      "è¥¿çĵľ": 6387,
      "ç¿»è¯ĳæĪĲçİ°ä»£æĸĩ": 6388,
      "ä¹ĭæĥħ": 6389,
      "çĮ´": 6390,
      "æĲľç´¢å¼ķæĵİ": 6391,
      "èīºæľ¯åĵģ": 6392,
      "çĽ¸åĲĮçļĦ": 6393,
      "æ»ĭ": 6394,
      "è¶ĬæĿ¥è¶Ĭå¤ļçļĦ": 6395,
      "çº¿ä¸Ĭ": 6396,
      "è¡¨è¾¾æĸ¹å¼ı": 6397,
      "çºªå¿µ": 6398,
      "éĢĽ": 6399
    },
    "merges": [
      [
        "ä",
        "¸"
      ],
      [
        "ï",
        "¼"
      ],
      [
        "ç",
        "ļ"
      ],
      [
        "çļ",
        "Ħ"
      ],
      [
        "ï¼",
        "Į"
      ],
      [
        "ã",
        "Ģ"
      ],
      [
        "ãĢ",
        "Ĥ"
      ],
      [
        "ä",
        "º"
      ],
      [
        "ä",
        "»"
      ],
      [
        "å",
        "ı"
      ],
      [
        "æ",
        "ľ"
      ],
      [
        "è",
        "¿"
      ],
      [
        "æ",
        "Ī"
      ],
      [
        "å",
        "ħ"
      ],
      [
        "ä",
        "½"
      ],
      [
        "æ",
        "ĺ"
      ],
      [
        "å",
        "¤"
      ],
      [
        "i",
        "m"
      ],
      [
        "|",
        ">"
      ],
      [
        "<",
        "|"
      ],
      [
        "è",
        "¯"
      ],
      [
        "ä¸",
        "Ģ"
      ],
      [
        "æ",
        "ĸ"
      ],
      [
        "å",
        "®"
      ],
      [
        "ç",
        "Ķ"
      ],
      [
        "å",
        "Ī"
      ],
      [
        "å",
        "Ĵ"
      ],
      [
        "å",
        "ľ"
      ],
      [
        "åĴ",
        "Į"
      ],
      [
        "å",
        "Ĳ"
      ],
      [
        "å",
        "Ĭ"
      ],
      [
        "ç",
        "»"
      ],
      [
        "ä",
        "¹"
      ],
      [
        "æĺ",
        "¯"
      ],
      [
        "å",
        "°"
      ],
      [
        "å",
        "Ń"
      ],
      [
        "ä¸",
        "ª"
      ],
      [
        "ä»",
        "¥"
      ],
      [
        "è",
        "®"
      ],
      [
        "ãĢ",
        "ģ"
      ],
      [
        "æĪ",
        "ĳ"
      ],
      [
        "åľ",
        "¨"
      ],
      [
        "äº",
        "º"
      ],
      [
        "ĥ",
        "½"
      ],
      [
        "a",
        "r"
      ],
      [
        "e",
        "n"
      ],
      [
        "s",
        "t"
      ],
      [
        "ar",
        "t"
      ],
      [
        "en",
        "d"
      ],
      [
        "st",
        "art"
      ],
      [
        "æľ",
        "ī"
      ],
      [
        "ï¼",
        "ļ"
      ],
      [
        "æ",
        "Ĺ"
      ],
      [
        "äº",
        "Ĩ"
      ],
      [
        "åı",
        "¯"
      ],
      [
        "è¿",
        "Ļ"
      ],
      [
        "å",
        "Ľ"
      ],
      [
        "æ",
        "Ŀ"
      ],
      [
        "å",
        "º"
      ],
      [
        "é",
        "ĩ"
      ],
      [
        "å",
        "¹"
      ],
      [
        "å",
        "¸"
      ],
      [
        "ä¸",
        "Ń"
      ],
      [
        "ä",
        "¼"
      ],
      [
        "é",
        "Ģ"
      ],
      [
        "è",
        "¡"
      ],
      [
        "è",
        "ĥ½"
      ],
      [
        "çļĦ",
        "æ"
      ],
      [
        "å",
        "ĩ"
      ],
      [
        "ãĢĤ",
        "<|"
      ],
      [
        "å",
        "·"
      ],
      [
        "æĸ",
        "ĩ"
      ],
      [
        "å",
        "Į"
      ],
      [
        "è",
        "¦"
      ],
      [
        "è¦",
        "ģ"
      ],
      [
        "é",
        "¢"
      ],
      [
        "å",
        "¯"
      ],
      [
        "å",
        "¾"
      ],
      [
        "å",
        "Ĩ"
      ],
      [
        "ä¸",
        "º"
      ],
      [
        "è",
        "§"
      ],
      [
        "å",
        "¥"
      ],
      [
        "ç",
        "ī"
      ],
      [
        "ç",
        "§"
      ],
      [
        "ä»",
        "¬"
      ],
      [
        "é",
        "Ĺ"
      ],
      [
        "ç",
        "İ"
      ],
      [
        "å",
        "¼"
      ],
      [
        "ä¸",
        "į"
      ],
      [
        "çĶ",
        "¨"
      ],
      [
        "æ",
        "ķ"
      ],
      [
        "è",
        "Ģ"
      ],
      [
        "å",
        "½"
      ],
      [
        "æ",
        "Ģ"
      ],
      [
        "æ",
        "ŀ"
      ],
      [
        "çĶ",
        "Ł"
      ],
      [
        "ç",
        "Ń"
      ],
      [
        "æ",
        "ı"
      ],
      [
        "æ",
        "ī"
      ],
      [
        "æ",
        "Ń"
      ],
      [
        "åı¯",
        "ä»¥"
      ],
      [
        "é",
        "Ŀ"
      ],
      [
        "å",
        "į"
      ],
      [
        "Ġ",
        "<|"
      ],
      [
        "ä",
        "¿"
      ],
      [
        "æ",
        "Ĭ"
      ],
      [
        "æ",
        "ł"
      ],
      [
        "æ",
        "³"
      ],
      [
        "ç",
        "Ľ"
      ],
      [
        "â",
        "Ģ"
      ],
      [
        "æĿ",
        "¥"
      ],
      [
        "è",
        "ĩ"
      ],
      [
        "æ",
        "Ħ"
      ],
      [
        "å",
        "ĵ"
      ],
      [
        "å",
        "¦"
      ],
      [
        "ä¸",
        "ĭ"
      ],
      [
        "ç",
        "Ĳ"
      ],
      [
        "ä¸Ģ",
        "ä¸ª"
      ],
      [
        "æĪ",
        "Ĳ"
      ],
      [
        "å",
        "İ"
      ],
      [
        "æ",
        "ĥ"
      ],
      [
        "æı",
        "Ĳ"
      ],
      [
        "æ",
        "°"
      ],
      [
        "åĪ",
        "°"
      ],
      [
        "ä»",
        "ĸ"
      ],
      [
        "æ",
        "Ľ"
      ],
      [
        "åŃ",
        "¦"
      ],
      [
        "æ",
        "Ļ"
      ],
      [
        "å¦",
        "Ĥ"
      ],
      [
        "è¡",
        "Į"
      ],
      [
        "åĩ",
        "º"
      ],
      [
        "å",
        "ĳ"
      ],
      [
        "å",
        "¿"
      ],
      [
        "æĹ",
        "¶"
      ],
      [
        "å¯",
        "¹"
      ],
      [
        "æ",
        "ĭ"
      ],
      [
        "ä½",
        "ł"
      ],
      [
        "åŃ",
        "Ĳ"
      ],
      [
        "ä",
        "¾"
      ],
      [
        "äº",
        "İ"
      ],
      [
        "æ",
        "İ"
      ],
      [
        "åľ",
        "°"
      ],
      [
        "é¢",
        "ĺ"
      ],
      [
        "ä¸",
        "Ĭ"
      ],
      [
        "ç",
        "«"
      ],
      [
        "æ",
        "Ķ"
      ],
      [
        "è",
        "´"
      ],
      [
        "å°",
        "ı"
      ],
      [
        "å¥",
        "½"
      ],
      [
        "ä¼",
        "ļ"
      ],
      [
        "çŃ",
        "ī"
      ],
      [
        "æĸ",
        "¹"
      ],
      [
        "æľ",
        "¬"
      ],
      [
        "èĩ",
        "ª"
      ],
      [
        "åĪ",
        "Ĩ"
      ],
      [
        "æĽ",
        "´"
      ],
      [
        "äº",
        "Ľ"
      ],
      [
        "å¤",
        "ļ"
      ],
      [
        "æ",
        "µ"
      ],
      [
        "æ",
        "¯"
      ],
      [
        "è",
        "µ"
      ],
      [
        "å¤",
        "§"
      ],
      [
        "å",
        "±"
      ],
      [
        "æ",
        "į"
      ],
      [
        "ï¼",
        "Ł"
      ],
      [
        "åĬ",
        "¨"
      ],
      [
        "ä½",
        "ľ"
      ],
      [
        "å·",
        "¥"
      ],
      [
        "çī",
        "©"
      ],
      [
        "ç",
        "º"
      ],
      [
        "åħ",
        "³"
      ],
      [
        "è",
        "¾"
      ],
      [
        "å¹",
        "¶"
      ],
      [
        "åı",
        "ĳ"
      ],
      [
        "ç",
        "®"
      ],
      [
        "æ",
        "Į"
      ],
      [
        "ç",
        "±"
      ],
      [
        "é",
        "£"
      ],
      [
        "é",
        "ľ"
      ],
      [
        "æĪĳ",
        "ä»¬"
      ],
      [
        "éĿ",
        "¢"
      ],
      [
        "æ",
        "´"
      ],
      [
        "å®",
        "ļ"
      ],
      [
        "æľ",
        "Ģ"
      ],
      [
        "åħ",
        "¶"
      ],
      [
        "æŀ",
        "ľ"
      ],
      [
        "å",
        "Ł"
      ],
      [
        "æ",
        "¬"
      ],
      [
        "ç§",
        "į"
      ],
      [
        "çİ",
        "°"
      ],
      [
        "çļĦ",
        "ç"
      ],
      [
        "è¿",
        "Ľ"
      ],
      [
        "æ³",
        "ķ"
      ],
      [
        "é",
        "Ļ"
      ],
      [
        "è¿",
        "ĩ"
      ],
      [
        "æ",
        "Ĥ"
      ],
      [
        "éĹ",
        "®"
      ],
      [
        "å",
        "ģ"
      ],
      [
        "æ",
        "¸"
      ],
      [
        "ä½",
        "ĵ"
      ],
      [
        "è",
        "ī"
      ],
      [
        "å¤",
        "©"
      ],
      [
        "å®",
        "ĥ"
      ],
      [
        "æį",
        "®"
      ],
      [
        "ç»",
        "Ļ"
      ],
      [
        "åĬ",
        "Ľ"
      ],
      [
        "çĲ",
        "Ĩ"
      ],
      [
        "æĺ",
        "İ"
      ],
      [
        "éľ",
        "Ģ"
      ],
      [
        "æ",
        "²"
      ],
      [
        "å°",
        "Ĩ"
      ],
      [
        "åº",
        "Ķ"
      ],
      [
        "åĬ",
        "ł"
      ],
      [
        "ç±",
        "»"
      ],
      [
        "æĸ",
        "°"
      ],
      [
        "é",
        "ģ"
      ],
      [
        "ç",
        "Ĥ"
      ],
      [
        "åĮ",
        "ĸ"
      ],
      [
        "æĢ",
        "§"
      ],
      [
        "ç",
        "Ħ"
      ],
      [
        "é",
        "«"
      ],
      [
        "åĲ",
        "Į"
      ],
      [
        "æĪ",
        "ĸ"
      ],
      [
        "ä½",
        "¿"
      ],
      [
        "åĽ",
        "ł"
      ],
      [
        "ä¿",
        "Ŀ"
      ],
      [
        "å¸",
        "¸"
      ],
      [
        "éĩ",
        "į"
      ],
      [
        "ç",
        "ľ"
      ],
      [
        "é«",
        "ĺ"
      ],
      [
        "åı",
        "¥"
      ],
      [
        "è",
        "½"
      ],
      [
        "æĦ",
        "Ł"
      ],
      [
        "å®",
        "¶"
      ],
      [
        "ä¹",
        "Ł"
      ],
      [
        "æľ",
        "º"
      ],
      [
        "å½",
        "±"
      ],
      [
        "è",
        "¶"
      ],
      [
        "æ",
        "±"
      ],
      [
        "ä¸",
        "»"
      ],
      [
        "é",
        "Ķ"
      ],
      [
        "é",
        "ĺ"
      ],
      [
        "è¯",
        "Ń"
      ],
      [
        "çĦ",
        "¶"
      ],
      [
        "ç«",
        "ł"
      ],
      [
        "å¾",
        "Ĺ"
      ],
      [
        "âĢ",
        "Ŀ"
      ],
      [
        "æķ",
        "°"
      ],
      [
        "æĸĩ",
        "ç«ł"
      ],
      [
        "éĢ",
        "ļ"
      ],
      [
        "åĵ",
        "ģ"
      ],
      [
        "âĢ",
        "ľ"
      ],
      [
        "ç",
        "³"
      ],
      [
        "éľĢ",
        "è¦ģ"
      ],
      [
        "çĶ",
        "µ"
      ],
      [
        "æĬ",
        "Ģ"
      ],
      [
        "æĻ",
        "º"
      ],
      [
        "è",
        "°"
      ],
      [
        "è§",
        "£"
      ],
      [
        "æĸĩ",
        "æľ¬"
      ],
      [
        "ä¹",
        "ĭ"
      ],
      [
        "ä¹",
        "Ī"
      ],
      [
        "æĥ",
        "ħ"
      ],
      [
        "æĤ",
        "¨"
      ],
      [
        "éĹ®",
        "é¢ĺ"
      ],
      [
        "åº",
        "¦"
      ],
      [
        "ç",
        "Ł"
      ],
      [
        "èĢ",
        "Į"
      ],
      [
        "å",
        "ī"
      ],
      [
        "æ",
        "ģ"
      ],
      [
        "è¡",
        "¨"
      ],
      [
        "ç»",
        "ı"
      ],
      [
        "æĻº",
        "èĥ½"
      ],
      [
        "è¯",
        "·"
      ],
      [
        "ç",
        "Ŀ"
      ],
      [
        "å¾",
        "Ī"
      ],
      [
        "éĹ",
        "´"
      ],
      [
        "æŃ",
        "¤"
      ],
      [
        "è",
        "Ĭ"
      ],
      [
        "å",
        "ĸ"
      ],
      [
        "ç",
        "¾"
      ],
      [
        "åħ",
        "¬"
      ],
      [
        "å",
        "¢"
      ],
      [
        "éĩ",
        "ı"
      ],
      [
        "åĽ",
        "½"
      ],
      [
        "ç",
        "©"
      ],
      [
        "çĤ",
        "¹"
      ],
      [
        "æľ",
        "¯"
      ],
      [
        "ç",
        "¤"
      ],
      [
        "èī",
        "²"
      ],
      [
        "è",
        "Ĥ"
      ],
      [
        "èĢ",
        "ħ"
      ],
      [
        "è¯",
        "į"
      ],
      [
        "å¹",
        "´"
      ],
      [
        "å®",
        "ŀ"
      ],
      [
        "æ°",
        "Ķ"
      ],
      [
        "å",
        "»"
      ],
      [
        "å",
        "Ģ"
      ],
      [
        "åı",
        "ĸ"
      ],
      [
        "ä¿",
        "¡"
      ],
      [
        "è¿Ļ",
        "ä¸ª"
      ],
      [
        "ä¹",
        "ł"
      ],
      [
        "åĲ",
        "į"
      ],
      [
        "ç",
        "¨"
      ],
      [
        "å¿",
        "ĥ"
      ],
      [
        "ä½",
        "Ĩ"
      ],
      [
        "åĲ",
        "Ī"
      ],
      [
        "æĦ",
        "ı"
      ],
      [
        "è¯",
        "¥"
      ],
      [
        "ä¸",
        "ļ"
      ],
      [
        "ä¾",
        "Ľ"
      ],
      [
        "ç",
        "ĸ"
      ],
      [
        "è®",
        "¡"
      ],
      [
        "åĲ",
        "İ"
      ],
      [
        "ç",
        "¡"
      ],
      [
        "é",
        "Ĥ"
      ],
      [
        "äº",
        "ĭ"
      ],
      [
        "æī",
        "Ģ"
      ],
      [
        "ä»¥",
        "ä¸ĭ"
      ],
      [
        "ä»",
        "İ"
      ],
      [
        "è¿",
        "ĺ"
      ],
      [
        "å»",
        "º"
      ],
      [
        "æ",
        "®"
      ],
      [
        "çĽ",
        "¸"
      ],
      [
        "çĿ",
        "Ģ"
      ],
      [
        "çĲ",
        "ĥ"
      ],
      [
        "ä¸Ģ",
        "äºĽ"
      ],
      [
        "é",
        "ĥ½"
      ],
      [
        "åĮ",
        "ħ"
      ],
      [
        "æıĲ",
        "ä¾Ľ"
      ],
      [
        "æ´",
        "»"
      ],
      [
        "ä¸",
        "İ"
      ],
      [
        "ç¾",
        "İ"
      ],
      [
        "æł",
        "¹"
      ],
      [
        "è¿Ľ",
        "è¡Į"
      ],
      [
        "æ",
        "Ł"
      ],
      [
        "åı¥",
        "åŃĲ"
      ],
      [
        "ç",
        "½"
      ],
      [
        "å¼",
        "ı"
      ],
      [
        "é£",
        "Ł"
      ],
      [
        "åħ",
        "¥"
      ],
      [
        "å±",
        "ķ"
      ],
      [
        "åħ",
        "¨"
      ],
      [
        "éĩ",
        "Į"
      ],
      [
        "è¿",
        "°"
      ],
      [
        "äºº",
        "å·¥"
      ],
      [
        "å¤",
        "ĸ"
      ],
      [
        "çİ",
        "¯"
      ],
      [
        "é",
        "¡"
      ],
      [
        "ç",
        "ķ"
      ],
      [
        "çī",
        "¹"
      ],
      [
        "ä½¿",
        "çĶ¨"
      ],
      [
        "æĥ",
        "³"
      ],
      [
        "ç",
        "´"
      ],
      [
        "éĿ",
        "ŀ"
      ],
      [
        "è",
        "Ĳ"
      ],
      [
        "é",
        "¦"
      ],
      [
        "äººå·¥",
        "æĻºèĥ½"
      ],
      [
        "ç",
        "¯"
      ],
      [
        "åĨ",
        "ħ"
      ],
      [
        "æŃ",
        "£"
      ],
      [
        "æ",
        "¡"
      ],
      [
        "è",
        "¢"
      ],
      [
        "é",
        "ļ"
      ],
      [
        "å½",
        "ĵ"
      ],
      [
        "å¼",
        "Ģ"
      ],
      [
        "åİ",
        "»"
      ],
      [
        "é",
        "ķ"
      ],
      [
        "æģ",
        "¯"
      ],
      [
        "æł¹",
        "æį®"
      ],
      [
        "æ°",
        "´"
      ],
      [
        "æ",
        "·"
      ],
      [
        "æ¯",
        "Ķ"
      ],
      [
        "åı",
        "ĺ"
      ],
      [
        "åĨ",
        "Ļ"
      ],
      [
        "æ®",
        "µ"
      ],
      [
        "æĺ¯",
        "ä¸Ģ"
      ],
      [
        "å",
        "ŀ"
      ],
      [
        "é",
        "ĥ"
      ],
      [
        "ç³",
        "»"
      ],
      [
        "è",
        "·"
      ],
      [
        "åĬ",
        "©"
      ],
      [
        "è",
        "ģ"
      ],
      [
        "è¯",
        "´"
      ],
      [
        "åŃ¦",
        "ä¹ł"
      ],
      [
        "ç¨",
        "ĭ"
      ],
      [
        "åĪ",
        "¶"
      ],
      [
        "åħ",
        "·"
      ],
      [
        "ç¡",
        "®"
      ],
      [
        "å¸",
        "Ĥ"
      ],
      [
        "è®",
        "©"
      ],
      [
        "ä»",
        "Ģ"
      ],
      [
        "é",
        "Ľ"
      ],
      [
        "æĮ",
        "ģ"
      ],
      [
        "éģ",
        "ĵ"
      ],
      [
        "å",
        "Ŀ"
      ],
      [
        "çľ",
        "ĭ"
      ],
      [
        "ç¯",
        "ĩ"
      ],
      [
        "ç",
        "¼"
      ],
      [
        "äº",
        "§"
      ],
      [
        "èµ",
        "·"
      ],
      [
        "ç",
        "ĥ"
      ],
      [
        "ç»",
        "ĵ"
      ],
      [
        "å",
        "ķ"
      ],
      [
        "ä»Ģ",
        "ä¹Ī"
      ],
      [
        "æĬĢ",
        "æľ¯"
      ],
      [
        "å¸",
        "®"
      ],
      [
        "è",
        "º"
      ],
      [
        "åı",
        "Ĭ"
      ],
      [
        "è¯",
        "Ŀ"
      ],
      [
        "éĥ",
        "¨"
      ],
      [
        "çĽ",
        "®"
      ],
      [
        "éĤ",
        "£"
      ],
      [
        "è",
        "ĭ"
      ],
      [
        "ç",
        "¬"
      ],
      [
        "ä½",
        "ķ"
      ],
      [
        "éķ",
        "¿"
      ],
      [
        "éĿŀ",
        "å¸¸"
      ],
      [
        "è",
        "į"
      ],
      [
        "åĬ",
        "¡"
      ],
      [
        "ç®",
        "Ĺ"
      ],
      [
        "æ¯",
        "ı"
      ],
      [
        "èº",
        "«"
      ],
      [
        "ç",
        "ĭ"
      ],
      [
        "è¢",
        "«"
      ],
      [
        "åģ",
        "¥"
      ],
      [
        "ç§",
        "ĳ"
      ],
      [
        "æĹ",
        "¥"
      ],
      [
        "å°",
        "ĳ"
      ],
      [
        "å·",
        "±"
      ],
      [
        "åī",
        "į"
      ],
      [
        "å",
        "Ļ"
      ],
      [
        "æĭ",
        "¬"
      ],
      [
        "é",
        "ħ"
      ],
      [
        "éĢ",
        "Ĥ"
      ],
      [
        "åĸ",
        "ľ"
      ],
      [
        "èĩª",
        "å·±"
      ],
      [
        "åľ",
        "º"
      ],
      [
        "å®",
        "¹"
      ],
      [
        "åı",
        "Ĺ"
      ],
      [
        "åı¯",
        "èĥ½"
      ],
      [
        "æĹ",
        "ł"
      ],
      [
        "åĽ",
        "ŀ"
      ],
      [
        "æ¬",
        "¢"
      ],
      [
        "ä¿¡",
        "æģ¯"
      ],
      [
        "éĢ",
        "ī"
      ],
      [
        "ä»ĸ",
        "ä»¬"
      ],
      [
        "åĻ",
        "¨"
      ],
      [
        "åĮ",
        "»"
      ],
      [
        "äº",
        "¤"
      ],
      [
        "å¥½",
        "çļĦ"
      ],
      [
        "ä»",
        "£"
      ],
      [
        "åŀ",
        "ĭ"
      ],
      [
        "é¢",
        "Ĩ"
      ],
      [
        "åĪ",
        "«"
      ],
      [
        "è",
        "Ļ"
      ],
      [
        "ç",
        "ł"
      ],
      [
        "å¤",
        "Ħ"
      ],
      [
        "çĶµ",
        "å½±"
      ],
      [
        "çŃ",
        "Ķ"
      ],
      [
        "è",
        "¨"
      ],
      [
        "é",
        "¥"
      ],
      [
        "ç",
        "Ī"
      ],
      [
        "é",
        "ª"
      ],
      [
        "æ",
        "¶"
      ],
      [
        "ä½",
        "į"
      ],
      [
        "åĪ",
        "©"
      ],
      [
        "è´",
        "¨"
      ],
      [
        "æ",
        "»"
      ],
      [
        "è®",
        "®"
      ],
      [
        "é£",
        "İ"
      ],
      [
        "å¢",
        "ĥ"
      ],
      [
        "å¹",
        "³"
      ],
      [
        "ä¸",
        "¤"
      ],
      [
        "æ¡",
        "Ī"
      ],
      [
        "æī",
        "ĭ"
      ],
      [
        "ç",
        "Ĺ"
      ],
      [
        "å",
        "§"
      ],
      [
        "ä¾",
        "ĭ"
      ],
      [
        "è¿Ļ",
        "äºĽ"
      ],
      [
        "éĩį",
        "è¦ģ"
      ],
      [
        "éĢļ",
        "è¿ĩ"
      ],
      [
        "å¦Ĥ",
        "æŀľ"
      ],
      [
        "ä¸Ń",
        "çļĦ"
      ],
      [
        "é",
        "Ł"
      ],
      [
        "ä»",
        "»"
      ],
      [
        "åĵ",
        "į"
      ],
      [
        "ä»",
        "¶"
      ],
      [
        "çĶŁ",
        "æĪĲ"
      ],
      [
        "åĮħ",
        "æĭ¬"
      ],
      [
        "è®",
        "º"
      ],
      [
        "åŃ",
        "Ĺ"
      ],
      [
        "åı",
        "¸"
      ],
      [
        "åŁ",
        "Ł"
      ],
      [
        "åıĳ",
        "å±ķ"
      ],
      [
        "è¨",
        "Ģ"
      ],
      [
        "ç",
        "Ļ"
      ],
      [
        "åºĶ",
        "çĶ¨"
      ],
      [
        "å°ı",
        "æĺİ"
      ],
      [
        "å°",
        "±"
      ],
      [
        "æł",
        "ĩ"
      ],
      [
        "ç®",
        "Ģ"
      ],
      [
        "æ±",
        "Ĥ"
      ],
      [
        "æ²",
        "¡"
      ],
      [
        "åĪ",
        "Ľ"
      ],
      [
        "åį",
        "ķ"
      ],
      [
        "åĨ",
        "³"
      ],
      [
        "è§",
        "Ĥ"
      ],
      [
        "æĶ",
        "¹"
      ],
      [
        "æĶ",
        "¾"
      ],
      [
        "æİ",
        "¨"
      ],
      [
        "æ¸",
        "¸"
      ],
      [
        "è",
        "Ī"
      ],
      [
        "ç",
        "ģ"
      ],
      [
        "åı",
        "ª"
      ],
      [
        "æľ",
        "ª"
      ],
      [
        "è®",
        "¾"
      ],
      [
        "å½±",
        "åĵį"
      ],
      [
        "çŁ",
        "¥"
      ],
      [
        "åº",
        "·"
      ],
      [
        "ç»",
        "Ł"
      ],
      [
        "æĹ¶",
        "éĹ´"
      ],
      [
        "ä¸",
        "ī"
      ],
      [
        "æĢ",
        "»"
      ],
      [
        "å¸®",
        "åĬ©"
      ],
      [
        "ç",
        "¥"
      ],
      [
        "æľ",
        "Ł"
      ],
      [
        "é",
        "»"
      ],
      [
        "å",
        "£"
      ],
      [
        "åĸľ",
        "æ¬¢"
      ],
      [
        "æ",
        "º"
      ],
      [
        "ä¹",
        "Ĳ"
      ],
      [
        "èĬ",
        "Ĥ"
      ],
      [
        "åħ¬",
        "åı¸"
      ],
      [
        "æı",
        "ı"
      ],
      [
        "æķ",
        "Ī"
      ],
      [
        "è¯",
        "Ĩ"
      ],
      [
        "åģ¥",
        "åº·"
      ],
      [
        "æµ",
        "·"
      ],
      [
        "æ",
        "¨"
      ],
      [
        "å¼",
        "º"
      ],
      [
        "å¤",
        "Ł"
      ],
      [
        "è",
        "ĥ"
      ],
      [
        "ç»Ļ",
        "å®ļ"
      ],
      [
        "ç¤",
        "¾"
      ],
      [
        "æĸ",
        "Ń"
      ],
      [
        "åĩ",
        "ı"
      ],
      [
        "äºº",
        "ç±»"
      ],
      [
        "æ",
        "ĳ"
      ],
      [
        "æ³",
        "¨"
      ],
      [
        "æŀ",
        "ģ"
      ],
      [
        "å®",
        "ī"
      ],
      [
        "é¢Ĩ",
        "åŁŁ"
      ],
      [
        "çĶŁ",
        "æ´»"
      ],
      [
        "æ",
        "¼"
      ],
      [
        "æľ",
        "į"
      ],
      [
        "è¾",
        "¾"
      ],
      [
        "æ·",
        "±"
      ],
      [
        "çĶ",
        "±"
      ],
      [
        "æł",
        "·"
      ],
      [
        "çĸ",
        "Ĺ"
      ],
      [
        "åĽł",
        "æŃ¤"
      ],
      [
        "çİ¯",
        "å¢ĥ"
      ],
      [
        "ä¸į",
        "åĲĮ"
      ],
      [
        "æŃ",
        "¥"
      ],
      [
        "å·¥",
        "ä½ľ"
      ],
      [
        "æĺ",
        "Ł"
      ],
      [
        "è",
        "±"
      ],
      [
        "è",
        "Ħ"
      ],
      [
        "é",
        "©"
      ],
      [
        "éŁ",
        "³"
      ],
      [
        "å¤",
        "ª"
      ],
      [
        "æķ°",
        "æį®"
      ],
      [
        "æµ",
        "ģ"
      ],
      [
        "å½",
        "¢"
      ],
      [
        "åİ",
        "Ł"
      ],
      [
        "åģ",
        "ļ"
      ],
      [
        "ä¸",
        "ĸ"
      ],
      [
        "å·",
        "²"
      ],
      [
        "è",
        "İ"
      ],
      [
        "æıĲ",
        "åıĸ"
      ],
      [
        "æĻ",
        "¯"
      ],
      [
        "è½",
        "¦"
      ],
      [
        "åı",
        "ĭ"
      ],
      [
        "æıı",
        "è¿°"
      ],
      [
        "æ²¡",
        "æľī"
      ],
      [
        "å¸",
        "¦"
      ],
      [
        "æĪ",
        "·"
      ],
      [
        "åĽł",
        "ä¸º"
      ],
      [
        "å¯",
        "¼"
      ],
      [
        "è¿",
        "Ĳ"
      ],
      [
        "æ¬",
        "¡"
      ],
      [
        "åĳ",
        "ĺ"
      ],
      [
        "ç",
        "Į"
      ],
      [
        "ç",
        "²"
      ],
      [
        "é",
        "Ĵ"
      ],
      [
        "è",
        "ı"
      ],
      [
        "å»º",
        "è®®"
      ],
      [
        "æ¨",
        "¡"
      ],
      [
        "æĸ",
        "Ļ"
      ],
      [
        "éĶ",
        "®"
      ],
      [
        "æıĲ",
        "é«ĺ"
      ],
      [
        "è¯",
        "ķ"
      ],
      [
        "èĩª",
        "çĦ¶"
      ],
      [
        "å®ĥ",
        "ä»¬"
      ],
      [
        "æī",
        "¾"
      ],
      [
        "ãĢ",
        "ĭ"
      ],
      [
        "åŁ",
        "º"
      ],
      [
        "ãĢ",
        "Ĭ"
      ],
      [
        "å¦Ĥ",
        "ä½ķ"
      ],
      [
        "è®",
        "¤"
      ],
      [
        "åİ",
        "Ĩ"
      ],
      [
        "ä¹",
        "ī"
      ],
      [
        "åŁ",
        "İ"
      ],
      [
        "æĽ´",
        "åĬł"
      ],
      [
        "å¥",
        "¹"
      ],
      [
        "ä¼",
        "ł"
      ],
      [
        "æº",
        "Ĳ"
      ],
      [
        "ä¸»",
        "è¦ģ"
      ],
      [
        "åĲ",
        "Ħ"
      ],
      [
        "åħ³",
        "éĶ®"
      ],
      [
        "ç¤",
        "º"
      ],
      [
        "æĬ",
        "¤"
      ],
      [
        "æĭ",
        "©"
      ],
      [
        "æĮ",
        "ĩ"
      ],
      [
        "åºĶ",
        "è¯¥"
      ],
      [
        "åĲ",
        "ĳ"
      ],
      [
        "éĢ",
        "ł"
      ],
      [
        "æł",
        "¼"
      ],
      [
        "ç»",
        "Ħ"
      ],
      [
        "éĢī",
        "æĭ©"
      ],
      [
        "çķ",
        "Į"
      ],
      [
        "åħ",
        "ī"
      ],
      [
        "çļĦæ",
        "ķ"
      ],
      [
        "æĸ¹",
        "å¼ı"
      ],
      [
        "æĹ",
        "ħ"
      ],
      [
        "åĲĮ",
        "æĹ¶"
      ],
      [
        "è¿",
        "ĳ"
      ],
      [
        "èĥ½",
        "å¤Ł"
      ],
      [
        "ç¯ĩ",
        "æĸĩç«ł"
      ],
      [
        "èĲ",
        "½"
      ],
      [
        "ç©",
        "¶"
      ],
      [
        "è",
        "£"
      ],
      [
        "åĨħ",
        "å®¹"
      ],
      [
        "è°",
        "ĥ"
      ],
      [
        "äºº",
        "ä»¬"
      ],
      [
        "åı",
        "£"
      ],
      [
        "çĪ",
        "±"
      ],
      [
        "ï¼",
        "Ľ"
      ],
      [
        "è¯Ń",
        "è¨Ģ"
      ],
      [
        "è§",
        "Ĩ"
      ],
      [
        "åĳ",
        "³"
      ],
      [
        "ç©",
        "º"
      ],
      [
        "çº",
        "¢"
      ],
      [
        "åĮ",
        "º"
      ],
      [
        "èĢ",
        "ĥ"
      ],
      [
        "ä»",
        "·"
      ],
      [
        "åĲ",
        "Ĺ"
      ],
      [
        "åħ³",
        "äºİ"
      ],
      [
        "ç",
        "Ĭ"
      ],
      [
        "ç½",
        "ĳ"
      ],
      [
        "èĬ",
        "±"
      ],
      [
        "åĳ",
        "Ĭ"
      ],
      [
        "æĺ¯",
        "ä¸Ģä¸ª"
      ],
      [
        "ä¾ĭ",
        "å¦Ĥ"
      ],
      [
        "æľª",
        "æĿ¥"
      ],
      [
        "çĹ",
        "ħ"
      ],
      [
        "é",
        "¤"
      ],
      [
        "è®¡",
        "ç®Ĺ"
      ],
      [
        "å¿",
        "«"
      ],
      [
        "å¹",
        "¿"
      ],
      [
        "æľº",
        "åĻ¨"
      ],
      [
        "ç®",
        "¡"
      ],
      [
        "æĸ¹",
        "æ³ķ"
      ],
      [
        "æĸ¹",
        "éĿ¢"
      ],
      [
        "é¢",
        "Ħ"
      ],
      [
        "å¢",
        "ŀ"
      ],
      [
        "ï¼",
        "ī"
      ],
      [
        "åķ",
        "Ĩ"
      ],
      [
        "éª",
        "Į"
      ],
      [
        "é¤",
        "Ĳ"
      ],
      [
        "æĢ",
        "Ŀ"
      ],
      [
        "Ķ",
        "ç©¶"
      ],
      [
        "ç",
        "¦"
      ],
      [
        "ä¹",
        "¦"
      ],
      [
        "ä¸",
        "Ķ"
      ],
      [
        "åĩ",
        "Ĩ"
      ],
      [
        "å®",
        "Į"
      ],
      [
        "åĩ",
        "ł"
      ],
      [
        "é¦",
        "ĸ"
      ],
      [
        "é",
        "ĵ"
      ],
      [
        "å®",
        "¢"
      ],
      [
        "éĶ",
        "Ļ"
      ],
      [
        "åĪ°",
        "äºĨ"
      ],
      [
        "é¡",
        "¹"
      ],
      [
        "åħ¶",
        "ä»ĸ"
      ],
      [
        "ä¼",
        "ĺ"
      ],
      [
        "è¶",
        "Ĭ"
      ],
      [
        "ä»¥",
        "åıĬ"
      ],
      [
        "ä¸»",
        "é¢ĺ"
      ],
      [
        "é",
        "¸"
      ],
      [
        "å¼",
        "ķ"
      ],
      [
        "éĩ",
        "ĳ"
      ],
      [
        "è®",
        "¸"
      ],
      [
        "è¯",
        "Ħ"
      ],
      [
        "æ",
        "ļ"
      ],
      [
        "æ¸",
        "ħ"
      ],
      [
        "åħ",
        "Ī"
      ],
      [
        "ç´",
        "ł"
      ],
      [
        "åĬ",
        "Ł"
      ],
      [
        "æ",
        "£"
      ],
      [
        "å¤",
        "ĩ"
      ],
      [
        "è½",
        "»"
      ],
      [
        "æİ",
        "¥"
      ],
      [
        "è§",
        "ī"
      ],
      [
        "åĪ",
        "Ĺ"
      ],
      [
        "ï¼",
        "Ī"
      ],
      [
        "è¯",
        "»"
      ],
      [
        "èµ",
        "Ħ"
      ],
      [
        "æĪ",
        "ĺ"
      ],
      [
        "è",
        "Į"
      ],
      [
        "åĪĨ",
        "ç±»"
      ],
      [
        "å§",
        "ĭ"
      ],
      [
        "ä»",
        "Ĭ"
      ],
      [
        "ä¸ª",
        "äºº"
      ],
      [
        "éĺ",
        "³"
      ],
      [
        "çŁ",
        "Ń"
      ],
      [
        "èĩ",
        "´"
      ],
      [
        "åŃ",
        "ĺ"
      ],
      [
        "åĵ",
        "ª"
      ],
      [
        "æµ",
        "ĭ"
      ],
      [
        "æķ",
        "Ļ"
      ],
      [
        "æĢ",
        "ģ"
      ],
      [
        "æ¸",
        "©"
      ],
      [
        "ç»",
        "Ń"
      ],
      [
        "åĢ",
        "Ļ"
      ],
      [
        "ï¼",
        "ģ"
      ],
      [
        "æľ",
        "ĭ"
      ],
      [
        "æŀ",
        "Ĳ"
      ],
      [
        "ç¼",
        "ĸ"
      ],
      [
        "ä¸ĸ",
        "çķĮ"
      ],
      [
        "åħ",
        "±"
      ],
      [
        "ä½Ĩ",
        "æĺ¯"
      ],
      [
        "åĲ",
        "«"
      ],
      [
        "æľ",
        "Ī"
      ],
      [
        "èı",
        "ľ"
      ],
      [
        "æľĭ",
        "åıĭ"
      ],
      [
        "çº",
        "¦"
      ],
      [
        "åħ",
        "ĭ"
      ],
      [
        "ç§",
        "¯"
      ],
      [
        "ç«",
        "ĭ"
      ],
      [
        "çİ",
        "ĩ"
      ],
      [
        "åĽŀ",
        "çŃĶ"
      ],
      [
        "æĸĩ",
        "åĮĸ"
      ],
      [
        "åĪĨ",
        "æŀĲ"
      ],
      [
        "å¤Ħ",
        "çĲĨ"
      ],
      [
        "åı",
        "²"
      ],
      [
        "ç»",
        "Ĩ"
      ],
      [
        "çļĦæ",
        "ĥ"
      ],
      [
        "ä¸Ģ",
        "ä¸ĭ"
      ],
      [
        "æĶ",
        "¯"
      ],
      [
        "åĩı",
        "å°ĳ"
      ],
      [
        "åŁİ",
        "å¸Ĥ"
      ],
      [
        "è±",
        "¡"
      ],
      [
        "å±",
        "±"
      ],
      [
        "ä¹ĭ",
        "ä¸Ģ"
      ],
      [
        "è¶",
        "³"
      ],
      [
        "è¿Ļ",
        "ç¯ĩæĸĩç«ł"
      ],
      [
        "ä¸Ń",
        "åĽ½"
      ],
      [
        "æķ",
        "´"
      ],
      [
        "åĲ",
        "¦"
      ],
      [
        "å¤",
        "į"
      ],
      [
        "ç¬",
        "¬"
      ],
      [
        "åĪ",
        "Ļ"
      ],
      [
        "æ»",
        "¡"
      ],
      [
        "åĨ",
        "µ"
      ],
      [
        "ä¿Ŀ",
        "æĬ¤"
      ],
      [
        "çł",
        "Ķç©¶"
      ],
      [
        "ĺ",
        "è¦ģ"
      ],
      [
        "è",
        "ĳ"
      ],
      [
        "åħ",
        "ĥ"
      ],
      [
        "è§",
        "Ĵ"
      ],
      [
        "ç¥",
        "ŀ"
      ],
      [
        "é¥",
        "®"
      ],
      [
        "2",
        "0"
      ],
      [
        "å·²",
        "ç»ı"
      ],
      [
        "å",
        "ĥ"
      ],
      [
        "æľ",
        "Ľ"
      ],
      [
        "è®¸",
        "å¤ļ"
      ],
      [
        "æİ",
        "¢"
      ],
      [
        "äºĨ",
        "ä¸Ģ"
      ],
      [
        "èĩªå·±",
        "çļĦ"
      ],
      [
        "ä¸¤",
        "ä¸ª"
      ],
      [
        "ç³",
        "ĸ"
      ],
      [
        "éĩ",
        "ĩ"
      ],
      [
        "åı",
        "į"
      ],
      [
        "ç",
        "¿"
      ],
      [
        "è°",
        "¢"
      ],
      [
        "èĢ",
        "ģ"
      ],
      [
        "äº§",
        "åĵģ"
      ],
      [
        "çº",
        "¿"
      ],
      [
        "åĪ",
        "Ĵ"
      ],
      [
        "è¾",
        "ĵ"
      ],
      [
        "çľ",
        "Ł"
      ],
      [
        "åĮ»",
        "çĸĹ"
      ],
      [
        "æŃ¤",
        "å¤ĸ"
      ],
      [
        "çĭ",
        "Ĺ"
      ],
      [
        "ç³»",
        "ç»Ł"
      ],
      [
        "æĽ´",
        "å¤ļ"
      ],
      [
        "è§",
        "Ħ"
      ],
      [
        "å°",
        "½"
      ],
      [
        "éĢ",
        "Ł"
      ],
      [
        "å",
        "Ķ"
      ],
      [
        "ç",
        "ħ"
      ],
      [
        "è¶",
        "£"
      ],
      [
        "è·",
        "¯"
      ],
      [
        "éĻ",
        "©"
      ],
      [
        "å¥",
        "³"
      ],
      [
        "åı",
        "Ĥ"
      ],
      [
        "çļĦ",
        "äºº"
      ],
      [
        "èģ",
        "Ķ"
      ],
      [
        "åĲ",
        "ĥ"
      ],
      [
        "ä¿Ŀ",
        "æĮģ"
      ],
      [
        "ä»",
        "½"
      ],
      [
        "æĸ",
        "¯"
      ],
      [
        "è",
        "¥"
      ],
      [
        "åħ¨",
        "çĲĥ"
      ],
      [
        "æĺ¯ä¸Ģ",
        "ç§į"
      ],
      [
        "æĬ",
        "¥"
      ],
      [
        "æĺ",
        "ĵ"
      ],
      [
        "çĽ",
        "´"
      ],
      [
        "åĬ¨",
        "çī©"
      ],
      [
        "Â",
        "·"
      ],
      [
        "æľį",
        "åĬ¡"
      ],
      [
        "çĻ",
        "½"
      ],
      [
        "å¤",
        "´"
      ],
      [
        "åĢ",
        "¼"
      ],
      [
        "è¥",
        "¿"
      ],
      [
        "æĸ",
        "½"
      ],
      [
        "è§£",
        "åĨ³"
      ],
      [
        "æİ",
        "Ĵ"
      ],
      [
        "æĪĲ",
        "ä¸º"
      ],
      [
        "ħ",
        "äºĭ"
      ],
      [
        "åĨ",
        "į"
      ],
      [
        "åĥ",
        "ı"
      ],
      [
        "çĥ",
        "Ń"
      ],
      [
        "çİ¯",
        "ä¿Ŀ"
      ],
      [
        "ä»",
        "ĭ"
      ],
      [
        "åĽ",
        "¾"
      ],
      [
        "æ´»",
        "åĬ¨"
      ],
      [
        "å",
        "²"
      ],
      [
        "éļ",
        "¾"
      ],
      [
        "ä¹",
        "°"
      ],
      [
        "ä¾",
        "¿"
      ],
      [
        "åĳ",
        "¨"
      ],
      [
        "çļĦ",
        "ä¸Ģ"
      ],
      [
        "æŁ",
        "¥"
      ],
      [
        "æĪĸ",
        "èĢħ"
      ],
      [
        "èİ",
        "·"
      ],
      [
        "è¾",
        "ĥ"
      ],
      [
        "èĻ",
        "ĳ"
      ],
      [
        "æŀ",
        "Ħ"
      ],
      [
        "æĿ",
        "¡"
      ],
      [
        "ç¤¾",
        "ä¼ļ"
      ],
      [
        "å®ī",
        "åħ¨"
      ],
      [
        "1",
        "0"
      ],
      [
        "è¿Ĳ",
        "åĬ¨"
      ],
      [
        "è§",
        "ģ"
      ],
      [
        "çī",
        "ĩ"
      ],
      [
        "åĲ",
        "¬"
      ],
      [
        "èº«",
        "ä½ĵ"
      ],
      [
        "ç»Ļ",
        "æĪĳ"
      ],
      [
        "è¯",
        "Ĺ"
      ],
      [
        "åıĳ",
        "çİ°"
      ],
      [
        "èĩ",
        "³"
      ],
      [
        "æ",
        "Ĳ"
      ],
      [
        "çļĦæĥ",
        "ħ"
      ],
      [
        "æ¼",
        "Ķ"
      ],
      [
        "éħ",
        "į"
      ],
      [
        "éļ",
        "ı"
      ],
      [
        "åıĺ",
        "åĮĸ"
      ],
      [
        "çİ°",
        "åľ¨"
      ],
      [
        "ãĢĤ",
        "âĢĿ"
      ],
      [
        "æī",
        "ĵ"
      ],
      [
        "ç§ĳ",
        "æĬĢ"
      ],
      [
        "åħ¶",
        "ä¸Ń"
      ],
      [
        "ç»",
        "ĥ"
      ],
      [
        "åº",
        "ı"
      ],
      [
        "æĶ",
        "¶"
      ],
      [
        "çĬ",
        "¶"
      ],
      [
        "è®¤",
        "ä¸º"
      ],
      [
        "å¼",
        "ł"
      ],
      [
        "èĤ",
        "²"
      ],
      [
        "å¤©",
        "æ°Ķ"
      ],
      [
        "ä¸",
        "½"
      ],
      [
        "ç´",
        "¢"
      ],
      [
        "éĤ£",
        "ä¹Ī"
      ],
      [
        "æĪĳä»¬",
        "çļĦ"
      ],
      [
        "åĳ",
        "½"
      ],
      [
        "ä¹ĭ",
        "éĹ´"
      ],
      [
        "äº",
        "«"
      ],
      [
        "æĬ",
        "Ĭ"
      ],
      [
        "ç²",
        "¾"
      ],
      [
        "è®",
        "°"
      ],
      [
        "æ¶",
        "Ī"
      ],
      [
        "¹",
        "æŀľ"
      ],
      [
        "æ",
        "ħ"
      ],
      [
        "åħ",
        "ħ"
      ],
      [
        "èĥ½",
        "åĬĽ"
      ],
      [
        "çĽ¸",
        "åħ³"
      ],
      [
        "èĭ",
        "¹æŀľ"
      ],
      [
        "äº",
        "Į"
      ],
      [
        "ä½ł",
        "çļĦ"
      ],
      [
        "åİĨ",
        "åı²"
      ],
      [
        "æĶ",
        "¿"
      ],
      [
        "åĲ",
        "¸"
      ],
      [
        "å¾Ī",
        "å¤ļ"
      ],
      [
        "åı",
        "¤"
      ],
      [
        "çŃ",
        "ĸ"
      ],
      [
        "å",
        "¡"
      ],
      [
        "å¸¦",
        "æĿ¥"
      ],
      [
        "ç",
        "ı"
      ],
      [
        "æ",
        "¤"
      ],
      [
        "æĳ",
        "ĺè¦ģ"
      ],
      [
        "åĽ",
        "Ń"
      ],
      [
        "åħ·",
        "æľī"
      ],
      [
        "è´",
        "Ń"
      ],
      [
        "ç",
        "¢"
      ],
      [
        "åħ",
        "´"
      ],
      [
        "éĺ",
        "Ł"
      ],
      [
        "å¸",
        "Ī"
      ],
      [
        "ä½",
        "İ"
      ],
      [
        "çĮ",
        "«"
      ],
      [
        "å¤",
        "±"
      ],
      [
        "éĹ",
        "¨"
      ],
      [
        "æ¬",
        "¾"
      ],
      [
        "ç»",
        "´"
      ],
      [
        "æ²",
        "»"
      ],
      [
        "åį",
        "³"
      ],
      [
        "ç»Ļå®ļ",
        "çļĦ"
      ],
      [
        "éĹ",
        "»"
      ],
      [
        "ç§ĳ",
        "åŃ¦"
      ],
      [
        "ç§",
        "°"
      ],
      [
        "å¸",
        "ĥ"
      ],
      [
        "æ",
        "¢"
      ],
      [
        "çĭ",
        "¬"
      ],
      [
        "åħ",
        "į"
      ],
      [
        "æŃ",
        "Į"
      ],
      [
        "è¯",
        "ī"
      ],
      [
        "éĩ",
        "Ĭ"
      ],
      [
        "äº",
        "Ĵ"
      ],
      [
        "èį",
        "Ĳ"
      ],
      [
        "å",
        "ĭ"
      ],
      [
        "éŁ³",
        "ä¹Ĳ"
      ],
      [
        "ç»Ļ",
        "åĩº"
      ],
      [
        "å°",
        "Ŀ"
      ],
      [
        "çļĦæ",
        "Ħ"
      ],
      [
        "¦",
        "Ĥ"
      ],
      [
        "çŃĶ",
        "æ¡Ī"
      ],
      [
        "æī",
        "į"
      ],
      [
        "æĿ",
        "Ĳ"
      ],
      [
        "è¿Ļ",
        "ç§į"
      ],
      [
        "è®¾",
        "è®¡"
      ],
      [
        "ç§¯",
        "æŀģ"
      ],
      [
        "ç»",
        "į"
      ],
      [
        "å¼Ģ",
        "å§ĭ"
      ],
      [
        "ä»»",
        "åĬ¡"
      ],
      [
        "èĲ",
        "¥"
      ],
      [
        "æĿ",
        "¾"
      ],
      [
        "äºĨ",
        "è§£"
      ],
      [
        "éĽ",
        "Ĩ"
      ],
      [
        "è¡¨",
        "è¾¾"
      ],
      [
        "ä»ĭ",
        "ç»į"
      ],
      [
        "ä¸Ń",
        "æıĲåıĸ"
      ],
      [
        "åı¥",
        "è¯Ŀ"
      ],
      [
        "çļĦ",
        "å½±åĵį"
      ],
      [
        "å¯¼",
        "èĩ´"
      ],
      [
        "å¯",
        "Į"
      ],
      [
        "è¯",
        "¯"
      ],
      [
        "åŃ",
        "£"
      ],
      [
        "å¿",
        "ħ"
      ],
      [
        "å",
        "¨"
      ],
      [
        "è",
        "Ľ"
      ],
      [
        "å¯¹",
        "äºİ"
      ],
      [
        "æ¨¡",
        "åŀĭ"
      ],
      [
        "åħ·",
        "ä½ĵ"
      ],
      [
        "è®¡ç®Ĺ",
        "æľº"
      ],
      [
        "èĭ",
        "±"
      ],
      [
        "çĶ",
        "·"
      ],
      [
        "æĥħ",
        "æĦŁ"
      ],
      [
        "æľºåĻ¨",
        "åŃ¦ä¹ł"
      ],
      [
        "çĲĨ",
        "è§£"
      ],
      [
        "æİ¨",
        "èįĲ"
      ],
      [
        "çļĦæ",
        "Ĭ"
      ],
      [
        "è½",
        "¬"
      ],
      [
        "å®ŀ",
        "çİ°"
      ],
      [
        "æľĢ",
        "è¿ĳ"
      ],
      [
        "æĸ°",
        "çļĦ"
      ],
      [
        "æĺ¯",
        "åĲ¦"
      ],
      [
        "éĢļ",
        "å¸¸"
      ],
      [
        "åı",
        "·"
      ],
      [
        "åį",
        "ĩ"
      ],
      [
        "åİ",
        "ĭ"
      ],
      [
        "è®",
        "¨"
      ],
      [
        "é¦",
        "Ļ"
      ],
      [
        "éĻ",
        "¤"
      ],
      [
        "èµ",
        "Ľ"
      ],
      [
        "è®",
        "²"
      ],
      [
        "åĬ",
        "¿"
      ],
      [
        "ä¸",
        "ĵ"
      ],
      [
        "ä»Ĭ",
        "å¤©"
      ],
      [
        "æĽ´",
        "å¥½"
      ],
      [
        "èĤ",
        "ī"
      ],
      [
        "é",
        "²"
      ],
      [
        "åĮ",
        "Ĺ"
      ],
      [
        "ä¸į",
        "æĸŃ"
      ],
      [
        "åĲĦ",
        "ç§į"
      ],
      [
        "ä¿",
        "®"
      ],
      [
        "æĿ",
        "İ"
      ],
      [
        "è´",
        "¹"
      ],
      [
        "é»",
        "ĳ"
      ],
      [
        "éĶ",
        "Ģ"
      ],
      [
        "æ°",
        "ĳ"
      ],
      [
        "åľ°",
        "çĲĥ"
      ],
      [
        "è®¡",
        "åĪĴ"
      ],
      [
        "å¸Ĥ",
        "åľº"
      ],
      [
        "è£",
        "ħ"
      ],
      [
        "åį",
        "İ"
      ],
      [
        "æĪ",
        "ı"
      ],
      [
        "åį",
        "ģ"
      ],
      [
        "åħ³éĶ®",
        "è¯į"
      ],
      [
        "åĳĬ",
        "è¯ī"
      ],
      [
        "è¯",
        "ģ"
      ],
      [
        "æŁ",
        "ĵ"
      ],
      [
        "åħ",
        "»"
      ],
      [
        "çļĦ",
        "éĹ®é¢ĺ"
      ],
      [
        "æīĢ",
        "æľī"
      ],
      [
        "ä¸Ģ",
        "æ®µ"
      ],
      [
        "é©",
        "¬"
      ],
      [
        "è",
        "ħ"
      ],
      [
        "åĸ",
        "Ħ"
      ],
      [
        "åĽ",
        "´"
      ],
      [
        "æīĢ",
        "ä»¥"
      ],
      [
        "çĶ¨",
        "æĪ·"
      ],
      [
        "æ³¨",
        "æĦı"
      ],
      [
        "èī",
        "º"
      ],
      [
        "æĻ",
        "ļ"
      ],
      [
        "ç»",
        "Ī"
      ],
      [
        "æĪĳ",
        "çļĦ"
      ],
      [
        "åįķ",
        "è¯į"
      ],
      [
        "å¯",
        "»"
      ],
      [
        "è¯Ĩ",
        "åĪ«"
      ],
      [
        "éĢĤ",
        "åĲĪ"
      ],
      [
        "å¤",
        "ı"
      ],
      [
        "ä¸Ģ",
        "èµ·"
      ],
      [
        "æİ",
        "§"
      ],
      [
        "ç¦",
        "»"
      ],
      [
        "å¸",
        "Į"
      ],
      [
        "æŃ£",
        "åľ¨"
      ],
      [
        "ç",
        "ª"
      ],
      [
        "A",
        "I"
      ],
      [
        "æĪĳä»¬",
        "åı¯ä»¥"
      ],
      [
        "èĳ",
        "Ĺ"
      ],
      [
        "å¾",
        "ĭ"
      ],
      [
        "éĻ",
        "ħ"
      ],
      [
        "éĺ",
        "²"
      ],
      [
        "æĸ°",
        "éĹ»"
      ],
      [
        "æ¯Ķ",
        "å¦Ĥ"
      ],
      [
        "è¶",
        "ħ"
      ],
      [
        "ä»ĸ",
        "çļĦ"
      ],
      [
        "åĽ",
        "Ľ"
      ],
      [
        "è¿",
        "ľ"
      ],
      [
        "å¤ª",
        "éĺ³"
      ],
      [
        "åŃ",
        "©"
      ],
      [
        "è¦ģ",
        "æ±Ĥ"
      ],
      [
        "çŁ¥",
        "éģĵ"
      ],
      [
        "çļĦ",
        "æĺ¯"
      ],
      [
        "æĹł",
        "æ³ķ"
      ],
      [
        "å°",
        "Ķ"
      ],
      [
        "å¹¶",
        "ä¸Ķ"
      ],
      [
        "ä¸Ģ",
        "ç§į"
      ],
      [
        "å·",
        "§"
      ],
      [
        "æĦŁ",
        "åĪ°"
      ],
      [
        "æŀ",
        "Ĺ"
      ],
      [
        "æ³",
        "Ľ"
      ],
      [
        "å£",
        "°"
      ],
      [
        "æ",
        "Ĵ"
      ],
      [
        "èµ",
        "°"
      ],
      [
        "åĳ",
        "¢"
      ],
      [
        "åħ³",
        "ç³»"
      ],
      [
        "æŁ",
        "Ĳ"
      ],
      [
        "å°ı",
        "è¯´"
      ],
      [
        "çĦ¶",
        "åĲİ"
      ],
      [
        "åı",
        "¦"
      ],
      [
        "ä»",
        "ħ"
      ],
      [
        "ï¼ļ",
        "âĢľ"
      ],
      [
        "è´",
        "Ł"
      ],
      [
        "æĹħ",
        "æ¸¸"
      ],
      [
        "è¿ĩ",
        "ç¨ĭ"
      ],
      [
        "åį",
        "Ĺ"
      ],
      [
        "æ¯ı",
        "ä¸ª"
      ],
      [
        "å£",
        "«"
      ],
      [
        "ç½",
        "®"
      ],
      [
        "åŃĺ",
        "åľ¨"
      ],
      [
        "æĢ»",
        "ç»ĵ"
      ],
      [
        "å¤§",
        "çļĦ"
      ],
      [
        "åİ",
        "ħ"
      ],
      [
        "èģ",
        "Į"
      ],
      [
        "è§£",
        "éĩĬ"
      ],
      [
        "èĢĥ",
        "èĻĳ"
      ],
      [
        "å¾",
        "·"
      ],
      [
        "æĪĲ",
        "åĬŁ"
      ],
      [
        "æĭ",
        "ī"
      ],
      [
        "è´¨",
        "éĩı"
      ],
      [
        "è¾",
        "¹"
      ],
      [
        "æĹ",
        "©"
      ],
      [
        "çļĦæ",
        "°"
      ],
      [
        "ç®¡",
        "çĲĨ"
      ],
      [
        "éĻ",
        "į"
      ],
      [
        "èĽ",
        "ĭ"
      ],
      [
        "çļĦæ",
        "Ģ"
      ],
      [
        "åŃ¦",
        "çĶŁ"
      ],
      [
        "æĺ",
        "¾"
      ],
      [
        "ĳ",
        "æĪĺ"
      ],
      [
        "å",
        "Ħ"
      ],
      [
        "æĪ",
        "¿"
      ],
      [
        "çŃī",
        "çŃī"
      ],
      [
        "è",
        "ŀ"
      ],
      [
        "ª",
        "æĸ½"
      ],
      [
        "æ®µ",
        "èĲ½"
      ],
      [
        "è¡Į",
        "ä¸º"
      ],
      [
        "ç¾İ",
        "åĽ½"
      ],
      [
        "ä¸",
        "ľ"
      ],
      [
        "æĪĳ",
        "æĥ³"
      ],
      [
        "éĶĻ",
        "è¯¯"
      ],
      [
        "åĮ»",
        "çĶŁ"
      ],
      [
        "å¢ŀ",
        "åĬł"
      ],
      [
        "ä¸Ģ",
        "ç¯ĩ"
      ],
      [
        "è¾",
        "ĳ"
      ],
      [
        "ç",
        "Ĩ"
      ],
      [
        "ä¼",
        "¼"
      ],
      [
        "å°Ŀ",
        "è¯ķ"
      ],
      [
        "äº",
        "Ķ"
      ],
      [
        "çħ",
        "§"
      ],
      [
        "å¯¹",
        "è¯Ŀ"
      ],
      [
        "å®Į",
        "æĪĲ"
      ],
      [
        "æ",
        "¦Ĥ"
      ],
      [
        "å¯",
        "Ĩ"
      ],
      [
        "çİ",
        "©"
      ],
      [
        "æĺ¯",
        "ä»Ģä¹Ī"
      ],
      [
        "å¹¿",
        "æ³Ľ"
      ],
      [
        "ç±",
        "³"
      ],
      [
        "ä¸ĭ",
        "éĿ¢"
      ],
      [
        "ä½ľ",
        "ä¸º"
      ],
      [
        "åĪ©",
        "çĶ¨"
      ],
      [
        "çĶ",
        "»"
      ],
      [
        "è¿Ļ",
        "æ®µ"
      ],
      [
        "ä¸įåĲĮ",
        "çļĦ"
      ],
      [
        "çģ",
        "«"
      ],
      [
        "èĩª",
        "åĬ¨"
      ],
      [
        "æľĢ",
        "åĲİ"
      ],
      [
        "é¥®",
        "é£Ł"
      ],
      [
        "æĭ",
        "¥"
      ],
      [
        "æļ",
        "ĸ"
      ],
      [
        "çİ",
        "ĭ"
      ],
      [
        "éģ",
        "¿"
      ],
      [
        "åĴ",
        "ĸ"
      ],
      [
        "å½ĵ",
        "çĦ¶"
      ],
      [
        "æ",
        "¿"
      ],
      [
        "é£Ł",
        "çī©"
      ],
      [
        "è®",
        "Ń"
      ],
      [
        "çļĦ",
        "åıĳå±ķ"
      ],
      [
        "å®",
        "³"
      ],
      [
        "å¾Ĺ",
        "åĪ°"
      ],
      [
        "æµ",
        "İ"
      ],
      [
        "åı",
        "°"
      ],
      [
        "æĽ´å¥½",
        "åľ°"
      ],
      [
        "åĽ",
        "¢"
      ],
      [
        "ç¡®",
        "ä¿Ŀ"
      ],
      [
        "å¿",
        "µ"
      ],
      [
        "åı¯èĥ½",
        "ä¼ļ"
      ],
      [
        "çļĦ",
        "åľ°"
      ],
      [
        "çļĦæķ",
        "°"
      ],
      [
        "ä¼",
        "ģ"
      ],
      [
        "çļĦ",
        "ä¿¡æģ¯"
      ],
      [
        "ãĢĤ",
        "\\"
      ],
      [
        "ä»»",
        "ä½ķ"
      ],
      [
        "æ°Ķ",
        "åĢĻ"
      ],
      [
        "äº",
        "ļ"
      ],
      [
        "ç®Ĺ",
        "æ³ķ"
      ],
      [
        "åķ",
        "¡"
      ],
      [
        "èŀ",
        "į"
      ],
      [
        "çļĦ",
        "åºĶçĶ¨"
      ],
      [
        "äº",
        "¬"
      ],
      [
        "ä¸į",
        "æĺ¯"
      ],
      [
        "æłĩ",
        "é¢ĺ"
      ],
      [
        "äº§",
        "çĶŁ"
      ],
      [
        "éĻ",
        "Ĳ"
      ],
      [
        "æĤ¨",
        "çļĦ"
      ],
      [
        "åĴĸ",
        "åķ¡"
      ],
      [
        "æĥħ",
        "åĨµ"
      ],
      [
        "æ´",
        "ģ"
      ],
      [
        "æ",
        "ĵ"
      ],
      [
        "å®",
        "¤"
      ],
      [
        "å¸Į",
        "æľĽ"
      ],
      [
        "æķ",
        "ħäºĭ"
      ],
      [
        "èį",
        "ī"
      ],
      [
        "èİ·",
        "å¾Ĺ"
      ],
      [
        "æį",
        "¢"
      ],
      [
        "è¿ĺ",
        "æľī"
      ],
      [
        "å",
        "ł"
      ],
      [
        "éĽ",
        "¨"
      ],
      [
        "äºº",
        "çļĦ"
      ],
      [
        "ç»",
        "ľ"
      ],
      [
        "äº¤",
        "éĢļ"
      ],
      [
        "æĢ",
        "İ"
      ],
      [
        "å·",
        "´"
      ],
      [
        "è¾ĵ",
        "åħ¥"
      ],
      [
        "çĽ®",
        "æłĩ"
      ],
      [
        "åĦ",
        "¿"
      ],
      [
        "ç»ı",
        "æµİ"
      ],
      [
        "è¿Ļ",
        "æł·"
      ],
      [
        "çĶŁæĪĲ",
        "ä¸Ģä¸ª"
      ],
      [
        "å¹",
        "²"
      ],
      [
        "é»",
        "Ħ"
      ],
      [
        "è¡¨",
        "ç¤º"
      ],
      [
        "é¦ĸ",
        "åħĪ"
      ],
      [
        "çĶ¨",
        "äºİ"
      ],
      [
        "åı¯ä»¥",
        "å¸®åĬ©"
      ],
      [
        "éħ",
        "Ĵ"
      ],
      [
        "è¡",
        "£"
      ],
      [
        "é£",
        "ŀ"
      ],
      [
        "éĥ½",
        "æĺ¯"
      ],
      [
        "ç³ĸ",
        "æŀľ"
      ],
      [
        "ä¼",
        "Ĺ"
      ],
      [
        "å¾",
        "ģ"
      ],
      [
        "æľī",
        "æķĪ"
      ],
      [
        "é¤Ĳ",
        "åİħ"
      ],
      [
        "çļĦ",
        "ä¸»è¦ģ"
      ],
      [
        "ä½ł",
        "åı¯ä»¥"
      ],
      [
        "éĺ",
        "ħ"
      ],
      [
        "åĮħ",
        "åĲ«"
      ],
      [
        "çī",
        "Ľ"
      ],
      [
        "çļĦæ",
        "ł"
      ],
      [
        "ç©",
        "¿"
      ],
      [
        "åº",
        "Ĺ"
      ],
      [
        "æĹħ",
        "è¡Į"
      ],
      [
        "æī¾",
        "åĪ°"
      ],
      [
        "å¾",
        "Ģ"
      ],
      [
        "æķĻ",
        "èĤ²"
      ],
      [
        "å±",
        "ŀ"
      ],
      [
        "åº",
        "Ń"
      ],
      [
        "ç»ĵ",
        "æŀľ"
      ],
      [
        "ç®Ģ",
        "åįķ"
      ],
      [
        "¡",
        "æŁĵ"
      ],
      [
        "éľĢ",
        "æ±Ĥ"
      ],
      [
        "æ¸¸",
        "æĪı"
      ],
      [
        "æ¿",
        "Ģ"
      ],
      [
        "çļĦ",
        "éĩįè¦ģ"
      ],
      [
        "éĥ¨",
        "åĪĨ"
      ],
      [
        "é",
        "º"
      ],
      [
        "åĳĬè¯ī",
        "æĪĳ"
      ],
      [
        "ä½¿",
        "åħ¶"
      ],
      [
        "åĿ",
        "ĩ"
      ],
      [
        "éģ¿",
        "åħį"
      ],
      [
        "éĩĩ",
        "åıĸ"
      ],
      [
        "æ",
        "©"
      ],
      [
        "å±",
        "ħ"
      ],
      [
        "æ",
        "½"
      ],
      [
        "è§Ĥ",
        "çĤ¹"
      ],
      [
        "åĩł",
        "ä¸ª"
      ],
      [
        "æİ",
        "ªæĸ½"
      ],
      [
        "ç½ĳ",
        "ç»ľ"
      ],
      [
        "åĪ¶",
        "ä½ľ"
      ],
      [
        "çī",
        "Į"
      ],
      [
        "åĩĨ",
        "ç¡®"
      ],
      [
        "ä¹Ł",
        "æĺ¯"
      ],
      [
        "æľī",
        "åħ³"
      ],
      [
        "å¾",
        "®"
      ],
      [
        "ä»",
        "¤"
      ],
      [
        "äº",
        "ī"
      ],
      [
        "æĮģ",
        "ç»Ń"
      ],
      [
        "æĶ¯",
        "æĮģ"
      ],
      [
        "èĥ½",
        "æºĲ"
      ],
      [
        "ä¸",
        "ĩ"
      ],
      [
        "ä½ĵ",
        "éªĮ"
      ],
      [
        "å",
        "ª"
      ],
      [
        "é",
        "±"
      ],
      [
        "èµ·",
        "æĿ¥"
      ],
      [
        "äºĨ",
        "ä¸Ģä¸ª"
      ],
      [
        "é±",
        "¼"
      ],
      [
        "ä½ľ",
        "çĶ¨"
      ],
      [
        "åī",
        "§"
      ],
      [
        "ä¼ģ",
        "ä¸ļ"
      ],
      [
        "è¡¨",
        "çİ°"
      ],
      [
        "éĩįè¦ģ",
        "çļĦ"
      ],
      [
        "ç«",
        "Ļ"
      ],
      [
        "ç»",
        "¿"
      ],
      [
        "ä¸į",
        "èĥ½"
      ],
      [
        "çĽ",
        "Ĭ"
      ],
      [
        "é",
        "¼"
      ],
      [
        "ç",
        "ĳ"
      ],
      [
        "æł",
        "ĳ"
      ],
      [
        "åıĳ",
        "çĶŁ"
      ],
      [
        "ä»ĸä»¬",
        "çļĦ"
      ],
      [
        "ä¹Ł",
        "åı¯ä»¥"
      ],
      [
        "0",
        "0"
      ],
      [
        "è",
        "ĵ"
      ],
      [
        "èī",
        "¯"
      ],
      [
        "éĺħ",
        "è¯»"
      ],
      [
        "åĪ",
        "ĩ"
      ],
      [
        "å°ı",
        "çº¢"
      ],
      [
        "èĩªçĦ¶",
        "è¯Ńè¨Ģ"
      ],
      [
        "æ¤",
        "į"
      ],
      [
        "¾",
        "çĹħ"
      ],
      [
        "é",
        "¾"
      ],
      [
        "çĶ±",
        "äºİ"
      ],
      [
        "çİ°",
        "ä»£"
      ],
      [
        "ä¸ī",
        "ä¸ª"
      ],
      [
        "å¤",
        "ľ"
      ],
      [
        "åĵª",
        "äºĽ"
      ],
      [
        "åĪ",
        "¤"
      ],
      [
        "ç¤¾",
        "äº¤"
      ],
      [
        "å®",
        "Ŀ"
      ],
      [
        "å¾",
        "ħ"
      ],
      [
        "ç¬",
        "¦"
      ],
      [
        "æ²",
        "¹"
      ],
      [
        "æĭ¥",
        "æľī"
      ],
      [
        "åŁº",
        "äºİ"
      ],
      [
        "å¥",
        "¶"
      ],
      [
        "âĢĿ",
        "ï¼Į"
      ],
      [
        "æ",
        "¹"
      ],
      [
        "åĬł",
        "åħ¥"
      ],
      [
        "åħ³",
        "æ³¨"
      ],
      [
        "çº",
        "§"
      ],
      [
        "å¥",
        "ĩ"
      ],
      [
        "è¿ĺ",
        "æĺ¯"
      ],
      [
        "èī²",
        "çļĦ"
      ],
      [
        "ç»",
        "ĩ"
      ],
      [
        "è¯",
        "Ĭ"
      ],
      [
        "æ±",
        "¡æŁĵ"
      ],
      [
        "åı",
        "Ī"
      ],
      [
        "å¦Ĥæŀľ",
        "ä½ł"
      ],
      [
        "é¢",
        "ľ"
      ],
      [
        "éģ",
        "ĩ"
      ],
      [
        "åĬ",
        "ª"
      ],
      [
        "ä¸",
        "¾"
      ],
      [
        "åº",
        "ľ"
      ],
      [
        "åĿ",
        "Ĺ"
      ],
      [
        "ï¼Ł",
        "<|"
      ],
      [
        "é¦",
        "Ĩ"
      ],
      [
        "åĩº",
        "çİ°"
      ],
      [
        "è¿",
        "ŀ"
      ],
      [
        "çļĦ",
        "æĸĩç«ł"
      ],
      [
        "ä¸",
        "°"
      ],
      [
        "é¸",
        "¡"
      ],
      [
        "ç±»",
        "åŀĭ"
      ],
      [
        "ä»¥ä¸ĭ",
        "åı¥åŃĲ"
      ],
      [
        "ç¡®",
        "å®ļ"
      ],
      [
        "åĪ",
        "»"
      ],
      [
        "å®¶",
        "åºŃ"
      ],
      [
        "æĮ",
        "ĳæĪĺ"
      ],
      [
        "æĺ",
        "¥"
      ],
      [
        "å®¢",
        "æĪ·"
      ],
      [
        "èµĦ",
        "æºĲ"
      ],
      [
        "çļĦæ",
        "İ"
      ],
      [
        "åĬª",
        "åĬĽ"
      ],
      [
        "åĶ",
        "®"
      ],
      [
        "è½",
        "¯"
      ],
      [
        "ç¿",
        "»"
      ],
      [
        "èĪ",
        "Ĵ"
      ],
      [
        "èį",
        "¯"
      ],
      [
        "è®Ń",
        "ç»ĥ"
      ],
      [
        "æİ§",
        "åĪ¶"
      ],
      [
        "èĻ",
        "½"
      ],
      [
        "æľī",
        "è¶£"
      ],
      [
        "éĿ",
        "Ļ"
      ],
      [
        "æĢ§",
        "åĴĮ"
      ],
      [
        "æķ",
        "£"
      ],
      [
        "è¿",
        "½"
      ],
      [
        "åĬŁ",
        "èĥ½"
      ],
      [
        "è¿Ļ",
        "æĺ¯"
      ],
      [
        "ä»İ",
        "èĢĮ"
      ],
      [
        "èĦ",
        "ĳ"
      ],
      [
        "çļĦæĬ",
        "Ģ"
      ],
      [
        "æŃ£",
        "ç¡®"
      ],
      [
        "åıĹ",
        "åĪ°"
      ],
      [
        "æĸ¹",
        "æ¡Ī"
      ],
      [
        "çļĦ",
        "åı¥åŃĲ"
      ],
      [
        "çļĦæ",
        "Ļ"
      ],
      [
        "ä¸º",
[...]
